{"version": "1.0", "truncation": null, "padding": null, "added_tokens": [{"id": 49119, "content": "<|endoftext|>", "single_word": false, "lstrip": false, "rstrip": false, "normalized": false, "special": true}, {"id": 49120, "content": "<|im_start|>", "single_word": false, "lstrip": false, "rstrip": false, "normalized": false, "special": true}, {"id": 49121, "content": "<|im_end|>", "single_word": false, "lstrip": false, "rstrip": false, "normalized": false, "special": true}, {"id": 49122, "content": "<|object_ref_start|>", "single_word": false, "lstrip": false, "rstrip": false, "normalized": false, "special": true}, {"id": 49123, "content": "<|object_ref_end|>", "single_word": false, "lstrip": false, "rstrip": false, "normalized": false, "special": true}, {"id": 49124, "content": "<|box_start|>", "single_word": false, "lstrip": false, "rstrip": false, "normalized": false, "special": true}, {"id": 49125, "content": "<|box_end|>", "single_word": false, "lstrip": false, "rstrip": false, "normalized": false, "special": true}, {"id": 49126, "content": "<|quad_start|>", "single_word": false, "lstrip": false, "rstrip": false, "normalized": false, "special": true}, {"id": 49127, "content": "<|quad_end|>", "single_word": false, "lstrip": false, "rstrip": false, "normalized": false, "special": true}, {"id": 49128, "content": "<|vision_start|>", "single_word": false, "lstrip": false, "rstrip": false, "normalized": false, "special": true}, {"id": 49129, "content": "<|vision_end|>", "single_word": false, "lstrip": false, "rstrip": false, "normalized": false, "special": true}, {"id": 49130, "content": "<|vision_pad|>", "single_word": false, "lstrip": false, "rstrip": false, "normalized": false, "special": true}, {"id": 49131, "content": "<|image_pad|>", "single_word": false, "lstrip": false, "rstrip": false, "normalized": false, "special": true}, {"id": 49132, "content": "<|video_pad|>", "single_word": false, "lstrip": false, "rstrip": false, "normalized": false, "special": true}, {"id": 49133, "content": "<tool_call>", "single_word": false, "lstrip": false, "rstrip": false, "normalized": false, "special": false}, {"id": 49134, "content": "</tool_call>", "single_word": false, "lstrip": false, "rstrip": false, "normalized": false, "special": false}, {"id": 49135, "content": "<|fim_prefix|>", "single_word": false, "lstrip": false, "rstrip": false, "normalized": false, "special": false}, {"id": 49136, "content": "<|fim_middle|>", "single_word": false, "lstrip": false, "rstrip": false, "normalized": false, "special": false}, {"id": 49137, "content": "<|fim_suffix|>", "single_word": false, "lstrip": false, "rstrip": false, "normalized": false, "special": false}, {"id": 49138, "content": "<|fim_pad|>", "single_word": false, "lstrip": false, "rstrip": false, "normalized": false, "special": false}, {"id": 49139, "content": "<|repo_name|>", "single_word": false, "lstrip": false, "rstrip": false, "normalized": false, "special": false}, {"id": 49140, "content": "<|file_sep|>", "single_word": false, "lstrip": false, "rstrip": false, "normalized": false, "special": false}, {"id": 49141, "content": "<tool_response>", "single_word": false, "lstrip": false, "rstrip": false, "normalized": false, "special": false}, {"id": 49142, "content": "</tool_response>", "single_word": false, "lstrip": false, "rstrip": false, "normalized": false, "special": false}, {"id": 49143, "content": "<think>", "single_word": false, "lstrip": false, "rstrip": false, "normalized": false, "special": false}, {"id": 49144, "content": "</think>", "single_word": false, "lstrip": false, "rstrip": false, "normalized": false, "special": false}, {"id": 49145, "content": "<|audio_start|>", "single_word": false, "lstrip": false, "rstrip": false, "normalized": false, "special": true}, {"id": 49146, "content": "<|audio_end|>", "single_word": false, "lstrip": false, "rstrip": false, "normalized": false, "special": true}, {"id": 49147, "content": "<tts_pad>", "single_word": false, "lstrip": false, "rstrip": false, "normalized": false, "special": true}, {"id": 49148, "content": "<tts_text_bos>", "single_word": false, "lstrip": false, "rstrip": false, "normalized": false, "special": true}, {"id": 49149, "content": "<tts_text_eod>", "single_word": false, "lstrip": false, "rstrip": false, "normalized": false, "special": true}, {"id": 49150, "content": "<tts_text_bos_single>", "single_word": false, "lstrip": false, "rstrip": false, "normalized": false, "special": true}, {"id": 49151, "content": "<|audio_pad|>", "single_word": false, "lstrip": false, "rstrip": false, "normalized": false, "special": true}], "normalizer": {"type": "NFC"}, "pre_tokenizer": {"type": "Sequence", "pretokenizers": [{"type": "Split", "pattern": {"Regex": "(?i:'s|'t|'re|'ve|'m|'ll|'d)|[^\\r\\n\\p{L}\\p{N}]?\\p{L}+|\\p{N}| ?[^\\s\\p{L}\\p{N}]+[\\r\\n]*|\\s*[\\r\\n]+|\\s+(?!\\S)|\\s+"}, "behavior": "Isolated", "invert": false}, {"type": "ByteLevel", "add_prefix_space": false, "trim_offsets": true, "use_regex": false}]}, "post_processor": {"type": "ByteLevel", "add_prefix_space": false, "trim_offsets": false, "use_regex": false}, "decoder": {"type": "ByteLevel", "add_prefix_space": true, "trim_offsets": true, "use_regex": true}, "model": {"type": "BPE", "dropout": null, "unk_token": null, "continuing_subword_prefix": "", "end_of_word_suffix": "", "fuse_unk": false, "byte_fallback": false, "ignore_merges": false, "vocab": {"!": 0, "\"": 1, "#": 2, "$": 3, "%": 4, "&": 5, "'": 6, "(": 7, ")": 8, "*": 9, "+": 10, ",": 11, "-": 12, ".": 13, "/": 14, "0": 15, "1": 16, "2": 17, "3": 18, "4": 19, "5": 20, "6": 21, "7": 22, "8": 23, "9": 24, ":": 25, ";": 26, "<": 27, "=": 28, ">": 29, "?": 30, "@": 31, "A": 32, "B": 33, "C": 34, "D": 35, "E": 36, "F": 37, "G": 38, "H": 39, "I": 40, "J": 41, "K": 42, "L": 43, "M": 44, "N": 45, "O": 46, "P": 47, "Q": 48, "R": 49, "S": 50, "T": 51, "U": 52, "V": 53, "W": 54, "X": 55, "Y": 56, "Z": 57, "[": 58, "\\": 59, "]": 60, "^": 61, "_": 62, "`": 63, "a": 64, "b": 65, "c": 66, "d": 67, "e": 68, "f": 69, "g": 70, "h": 71, "i": 72, "j": 73, "k": 74, "l": 75, "m": 76, "n": 77, "o": 78, "p": 79, "q": 80, "r": 81, "s": 82, "t": 83, "u": 84, "v": 85, "w": 86, "x": 87, "y": 88, "z": 89, "{": 90, "|": 91, "}": 92, "~": 93, "¡": 94, "¢": 95, "£": 96, "¤": 97, "¥": 98, "¦": 99, "§": 100, "¨": 101, "©": 102, "ª": 103, "«": 104, "¬": 105, "®": 106, "¯": 107, "°": 108, "±": 109, "²": 110, "³": 111, "´": 112, "µ": 113, "¶": 114, "·": 115, "¸": 116, "¹": 117, "º": 118, "»": 119, "¼": 120, "½": 121, "¾": 122, "¿": 123, "À": 124, "Á": 125, "Â": 126, "Ã": 127, "Ä": 128, "Å": 129, "Æ": 130, "Ç": 131, "È": 132, "É": 133, "Ê": 134, "Ë": 135, "Ì": 136, "Í": 137, "Î": 138, "Ï": 139, "Ð": 140, "Ñ": 141, "Ò": 142, "Ó": 143, "Ô": 144, "Õ": 145, "Ö": 146, "×": 147, "Ø": 148, "Ù": 149, "Ú": 150, "Û": 151, "Ü": 152, "Ý": 153, "Þ": 154, "ß": 155, "à": 156, "á": 157, "â": 158, "ã": 159, "ä": 160, "å": 161, "æ": 162, "ç": 163, "è": 164, "é": 165, "ê": 166, "ë": 167, "ì": 168, "í": 169, "î": 170, "ï": 171, "ð": 172, "ñ": 173, "ò": 174, "ó": 175, "ô": 176, "õ": 177, "ö": 178, "÷": 179, "ø": 180, "ù": 181, "ú": 182, "û": 183, "ü": 184, "ý": 185, "þ": 186, "ÿ": 187, "Ā": 188, "ā": 189, "Ă": 190, "ă": 191, "Ą": 192, "ą": 193, "Ć": 194, "ć": 195, "Ĉ": 196, "ĉ": 197, "Ċ": 198, "ċ": 199, "Č": 200, "č": 201, "Ď": 202, "ď": 203, "Đ": 204, "đ": 205, "Ē": 206, "ē": 207, "Ĕ": 208, "ĕ": 209, "Ė": 210, "ė": 211, "Ę": 212, "ę": 213, "Ě": 214, "ě": 215, "Ĝ": 216, "ĝ": 217, "Ğ": 218, "ğ": 219, "Ġ": 220, "ġ": 221, "Ģ": 222, "ģ": 223, "Ĥ": 224, "ĥ": 225, "Ħ": 226, "ħ": 227, "Ĩ": 228, "ĩ": 229, "Ī": 230, "ī": 231, "Ĭ": 232, "ĭ": 233, "Į": 234, "į": 235, "İ": 236, "ı": 237, "Ĳ": 238, "ĳ": 239, "Ĵ": 240, "ĵ": 241, "Ķ": 242, "ķ": 243, "ĸ": 244, "Ĺ": 245, "ĺ": 246, "Ļ": 247, "ļ": 248, "Ľ": 249, "ľ": 250, "Ŀ": 251, "ŀ": 252, "Ł": 253, "ł": 254, "Ń": 255, "ĠĠ": 256, "ĠĠĠĠ": 257, "in": 258, "Ġt": 259, "ĠĠĠĠĠĠĠĠ": 260, "er": 261, "ĠĠĠ": 262, "on": 263, "Ġa": 264, "re": 265, "at": 266, "st": 267, "en": 268, "or": 269, "Ġth": 270, "ĊĊ": 271, "Ġc": 272, "le": 273, "Ġs": 274, "it": 275, "an": 276, "ar": 277, "al": 278, "Ġthe": 279, "Ġp": 280, "Ġf": 281, "ou": 282, "Ġ=": 283, "is": 284, "ĠĠĠĠĠĠĠ": 285, "ing": 286, "es": 287, "Ġw": 288, "ion": 289, "ed": 290, "ic": 291, "Ġb": 292, "Ġd": 293, "et": 294, "Ġm": 295, "Ġo": 296, "ĉĉ": 297, "ro": 298, "as": 299, "el": 300, "ct": 301, "nd": 302, "Ġin": 303, "Ġh": 304, "ent": 305, "id": 306, "Ġn": 307, "am": 308, "ĠĠĠĠĠĠĠĠĠĠĠ": 309, "Ġto": 310, "Ġre": 311, "--": 312, "Ġ{": 313, "Ġof": 314, "om": 315, "im": 316, "Ġ(": 317, "il": 318, "//": 319, "Ġand": 320, "ur": 321, "se": 322, "Ġl": 323, "ex": 324, "ĠS": 325, "ad": 326, "Ġ\"": 327, "ch": 328, "ut": 329, "if": 330, "**": 331, "Ġ}": 332, "em": 333, "ol": 334, "ĠĠĠĠĠĠĠĠĠĠĠĠĠĠĠĠ": 335, "th": 336, "Ġg": 337, "ig": 338, "iv": 339, "ce": 340, "od": 341, "Ġv": 342, "ate": 343, "ĠT": 344, "ag": 345, "ay": 346, "Ġ*": 347, "ot": 348, "us": 349, "ĠC": 350, "Ġst": 351, "ĠI": 352, "un": 353, "ul": 354, "ue": 355, "ĠA": 356, "ow": 357, "Ġ'": 358, "ew": 359, "Ġ<": 360, "ation": 361, "()": 362, "Ġfor": 363, "ab": 364, "ort": 365, "um": 366, "ame": 367, "Ġis": 368, "pe": 369, "tr": 370, "ck": 371, "âĢ": 372, "Ġy": 373, "ist": 374, "----": 375, "he": 376, "Ġe": 377, "lo": 378, "ĠM": 379, "Ġbe": 380, "ers": 381, "Ġon": 382, "Ġcon": 383, "ap": 384, "ub": 385, "ĠP": 386, "ĠĠĠĠĠĠĠĠĠĠĠĠĠĠĠ": 387, "ass": 388, "int": 389, "ly": 390, "urn": 391, "Ġ$": 392, "av": 393, "port": 394, "ir": 395, "->": 396, "nt": 397, "ction": 398, "end": 399, "Ġde": 400, "ith": 401, "out": 402, "turn": 403, "our": 404, "ĠĠĠĠĠ": 405, "lic": 406, "res": 407, "pt": 408, "==": 409, "Ġthis": 410, "Ġwh": 411, "Ġif": 412, "ĠD": 413, "ver": 414, "age": 415, "ĠB": 416, "ht": 417, "ext": 418, "=\"": 419, "Ġthat": 420, "****": 421, "ĠR": 422, "Ġit": 423, "ess": 424, "ĠF": 425, "Ġr": 426, "os": 427, "and": 428, "Ġas": 429, "ect": 430, "ke": 431, "rom": 432, "Ġ//": 433, "con": 434, "ĠL": 435, "(\"": 436, "qu": 437, "lass": 438, "Ġwith": 439, "iz": 440, "de": 441, "ĠN": 442, "Ġal": 443, "op": 444, "up": 445, "get": 446, "ile": 447, "Ġan": 448, "ata": 449, "ore": 450, "ri": 451, "Ġpro": 452, "ter": 453, "ain": 454, "ĠW": 455, "ĠE": 456, "Ġcom": 457, "Ġreturn": 458, "art": 459, "ĠH": 460, "ack": 461, "import": 462, "ublic": 463, "Ġor": 464, "est": 465, "ment": 466, "ĠG": 467, "able": 468, "Ġ-": 469, "ine": 470, "ill": 471, "ind": 472, "ere": 473, "::": 474, "ity": 475, "Ġ+": 476, "Ġtr": 477, "elf": 478, "ight": 479, "('": 480, "orm": 481, "ult": 482, "str": 483, "..": 484, "\",": 485, "Ġyou": 486, "ype": 487, "pl": 488, "Ġnew": 489, "Ġj": 490, "ĠĠĠĠĠĠĠĠĠĠĠĠĠĠĠĠĠĠĠ": 491, "Ġfrom": 492, "Ġex": 493, "ĠO": 494, "ld": 495, "Ġ[": 496, "oc": 497, "Ġse": 498, "Ġle": 499, "--------": 500, ".s": 501, "',": 502, "ant": 503, "Ġat": 504, "ase": 505, ".c": 506, "Ġch": 507, "</": 508, "ave": 509, "ang": 510, "Ġare": 511, "Ġint": 512, "âĢĻ": 513, "_t": 514, "ert": 515, "ial": 516, "act": 517, "ive": 518, "ode": 519, "ost": 520, "Ġclass": 521, "Ġnot": 522, "og": 523, "ord": 524, "alue": 525, "all": 526, "ff": 527, "ont": 528, "ime": 529, "are": 530, "ĠU": 531, "Ġpr": 532, "Ġ:": 533, "ies": 534, "ize": 535, "ure": 536, "Ġby": 537, "ire": 538, ".p": 539, "Ġsh": 540, "ice": 541, "ast": 542, "ption": 543, "tring": 544, "ok": 545, "__": 546, "cl": 547, "##": 548, "Ġhe": 549, "ard": 550, ").": 551, "Ġ@": 552, "iew": 553, "Ġwas": 554, "ip": 555, "this": 556, "Ġu": 557, "ĠThe": 558, "ide": 559, "ace": 560, "ib": 561, "ac": 562, "rou": 563, "Ġwe": 564, "ject": 565, "Ġpublic": 566, "ak": 567, "ve": 568, "ath": 569, "oid": 570, "Ġ=>": 571, "ust": 572, "que": 573, "Ġres": 574, "))": 575, "'s": 576, "Ġk": 577, "ans": 578, "yst": 579, "unction": 580, "Ġi": 581, "Ġus": 582, "pp": 583, "one": 584, "ail": 585, "====": 586, "name": 587, "Ġstr": 588, "Ġ/": 589, "Ġ&": 590, "ach": 591, "div": 592, "ystem": 593, "ell": 594, "Ġhave": 595, "err": 596, "ould": 597, "ull": 598, "pon": 599, "ĠJ": 600, "_p": 601, "Ġ==": 602, "ign": 603, "St": 604, "Ġpl": 605, "form": 606, "put": 607, "ount": 608, "dd": 609, "ite": 610, "Ġget": 611, "rr": 612, "ome": 613, "ĠâĢ": 614, "aram": 615, "cc": 616, "Ġ*/": 617, "ER": 618, "In": 619, "les": 620, "_s": 621, "ong": 622, "ie": 623, "Ġcan": 624, "ĠV": 625, "erv": 626, "pr": 627, "Ġun": 628, "row": 629, "ber": 630, "Ġdo": 631, "ll": 632, "Ġel": 633, "Ġself": 634, "ated": 635, "ary": 636, "Ġ.": 637, "']": 638, "ud": 639, "Ġen": 640, "ĠTh": 641, "ĠĠĠĠĠĠĠĠĠĠĠĠĠĠĠĠĠĠĠĠĠĠĠ": 642, "te": 643, "_c": 644, "uct": 645, "Ġab": 646, "ork": 647, ".get": 648, "Ġ#": 649, "aw": 650, "ress": 651, "ob": 652, "Name": 653, "app": 654, "['": 655, "Ġall": 656, "ory": 657, "ition": 658, "ance": 659, "ear": 660, "Ġcont": 661, "vent": 662, "ia": 663, "Ġwill": 664, "IN": 665, "ĠĠĠĠĠĠĠĠĠ": 666, "return": 667, "Ġ</": 668, "data": 669, "Re": 670, "ple": 671, "ild": 672, "ther": 673, "Ġyour": 674, "($": 675, "Ġout": 676, "),": 677, "Ġhas": 678, "String": 679, "so": 680, "Ġup": 681, "ax": 682, "Ġdef": 683, "Ġbo": 684, "ge": 685, "alse": 686, "ON": 687, "per": 688, "ich": 689, "Ġbut": 690, "ĠĊ": 691, "Ġ_": 692, "_m": 693, "add": 694, "quest": 695, "odel": 696, "self": 697, "ery": 698, "ft": 699, "ens": 700, "ake": 701, ".C": 702, "Ġgo": 703, "Ġfunction": 704, "ĠK": 705, "ivate": 706, "Ġim": 707, "Ġconst": 708, ".t": 709, "Ġvoid": 710, "Ġset": 711, "ĠSystem": 712, "cri": 713, "li": 714, "ĉif": 715, ".m": 716, "ally": 717, "set": 718, "ep": 719, "âĢĻs": 720, "bo": 721, "def": 722, "Ġme": 723, "Ġ!": 724, "atch": 725, "\">": 726, "ec": 727, "ĠIn": 728, "ph": 729, "Ġ|": 730, "_f": 731, "Ġvar": 732, "ence": 733, "Id": 734, "ree": 735, "ink": 736, "lect": 737, "ug": 738, "eth": 739, "Ġelse": 740, "----------------": 741, "cont": 742, "Ġso": 743, "atic": 744, "Ġlo": 745, "pro": 746, "ton": 747, "ss": 748, "own": 749, "abel": 750, "oint": 751, "ous": 752, "eld": 753, "ST": 754, "The": 755, "ĠĠĠĠĠĠĠĠĠĠĠĠĠĠĠĠĠĠĠĠĠĠĠĠĠĠĠĠĠĠĠĠ": 756, "RE": 757, "\":": 758, "olor": 759, "tp": 760, "eg": 761, "key": 762, "ude": 763, "ĠSt": 764, "ound": 765, "Ġar": 766, "ener": 767, "ser": 768, "bject": 769, "essage": 770, "fer": 771, "Ġmore": 772, "ations": 773, "ents": 774, "Ġhis": 775, "Ġthey": 776, ".S": 777, "ĠY": 778, "use": 779, "ne": 780, "ish": 781, "old": 782, "_d": 783, "io": 784, "ield": 785, "Ġper": 786, "Cont": 787, "ings": 788, "####": 789, "Ġdata": 790, "Ġsa": 791, "ef": 792, "fo": 793, "Ġone": 794, "eng": 795, "Ġdis": 796, "AT": 797, "Ġname": 798, "Ġtrue": 799, "val": 800, "led": 801, ".f": 802, "Ġne": 803, "Ġend": 804, ".T": 805, "cre": 806, "ark": 807, "log": 808, "Ex": 809, "error": 810, "_id": 811, "urre": 812, "ange": 813, "Ġnull": 814, "rray": 815, "Ġmy": 816, "pan": 817, "ict": 818, "ator": 819, "View": 820, "List": 821, "ĉreturn": 822, "âĢĿ": 823, "Ġpre": 824, "Ġx": 825, "clude": 826, "arg": 827, "ov": 828, ".h": 829, "Ġ>": 830, "Ġtheir": 831, "')": 832, "irst": 833, "ick": 834, "gh": 835, "LE": 836, "OR": 837, "Ġprivate": 838, "tem": 839, "user": 840, "Ġ)": 841, "com": 842, ".A": 843, "Ġid": 844, "read": 845, "Ġwho": 846, "_b": 847, "Ġtime": 848, "Ġman": 849, "ry": 850, "========": 851, "roup": 852, "rop": 853, "public": 854, "vel": 855, "umber": 856, "ble": 857, "Ġwhich": 858, "Ġany": 859, "Ġfalse": 860, "we": 861, "Ġvalue": 862, "Ġli": 863, "\")": 864, "nder": 865, "gr": 866, "Ġno": 867, "param": 868, "fig": 869, ".com": 870, "Ġapp": 871, "_l": 872, "ions": 873, ".D": 874, "ĠCh": 875, "Ġabout": 876, "Ġadd": 877, "Ġsu": 878, "Ġstring": 879, "ID": 880, "Ġover": 881, "string": 882, ".l": 883, "ource": 884, "_C": 885, "Ġqu": 886, "ĠString": 887, "ca": 888, "SE": 889, "Ġro": 890, "sh": 891, "ual": 892, "Type": 893, "son": 894, "new": 895, "ern": 896, "Ġag": 897, "AR": 898, "].": 899, "Ġ?": 900, "ical": 901, "Ġdes": 902, "uth": 903, "ix": 904, "ays": 905, "Ġtype": 906, "'t": 907, "ault": 908, "Ġinter": 909, "var": 910, ".b": 911, "Ġpart": 912, ".d": 913, "urrent": 914, "IT": 915, "EN": 916, "enc": 917, "(f": 918, "ra": 919, "value": 920, "cho": 921, "utton": 922, "ose": 923, "Ġ!=": 924, "ater": 925, "Ã©": 926, "reate": 927, "oll": 928, "pos": 929, "yle": 930, "ng": 931, "AL": 932, "using": 933, "ames": 934, "ates": 935, "ely": 936, "Ġwork": 937, "Ġem": 938, "inal": 939, "Ġsp": 940, "Ġwhen": 941, ".set": 942, "ĠĠĠĠĠĠ": 943, "to": 944, "quire": 945, "indow": 946, "lement": 947, "pect": 948, "ash": 949, "[i": 950, "Ġuse": 951, ".F": 952, "pec": 953, "Ġad": 954, "ove": 955, "ception": 956, "ength": 957, "include": 958, "ader": 959, "ĠĠĠĠĠĠĠĠĠĠĠĠĠĠĠĠĠĠĠĠĠĠĠĠĠĠĠ": 960, "atus": 961, "Th": 962, "itle": 963, "rit": 964, "void": 965, "().": 966, "Ġoff": 967, "Ġother": 968, "Ġ&&": 969, "ms": 970, "Ġbeen": 971, "Ġte": 972, "ml": 973, "co": 974, "nc": 975, "ervice": 976, "Ġ%": 977, "ann": 978, "ade": 979, "ĊĊĊĊ": 980, "lock": 981, "const": 982, "ponse": 983, "Ġsup": 984, "++": 985, "date": 986, "Ġacc": 987, "Ġhad": 988, "Ġbu": 989, "ĠRe": 990, "Ġwere": 991, "Ġfile": 992, "Ġwould": 993, "ĠâĢľ": 994, "ven": 995, "iss": 996, "Ġour": 997, "class": 998, "raw": 999, "Ġyear": 1000, "Data": 1001, "Ġval": 1002, "Ġsome": 1003, "fter": 1004, "ys": 1005, "Ġ///": 1006, "round": 1007, "view": 1008, "Ġpe": 1009, "Ġthere": 1010, "Ġsaid": 1011, "du": 1012, "of": 1013, "line": 1014, "/*": 1015, "duct": 1016, "Ġher": 1017, "ĠĠĠĠĠĠĠĠĠĠĠĠĠ": 1018, "Res": 1019, "Ġco": 1020, "Ġcomm": 1021, "ise": 1022, "min": 1023, "ĠĠĠĠĊ": 1024, "#include": 1025, "ethod": 1026, ".P": 1027, "ute": 1028, "Ġass": 1029, "Int": 1030, "ask": 1031, "loc": 1032, "Ġlike": 1033, "ody": 1034, "Ġlet": 1035, "load": 1036, "Ġam": 1037, "rol": 1038, "Ġgr": 1039, "yp": 1040, "Ġalso": 1041, "ĠIt": 1042, "url": 1043, "ific": 1044, "ors": 1045, "_P": 1046, "_n": 1047, "igh": 1048, "Ġthan": 1049, "Com": 1050, "AN": 1051, "UL": 1052, "ating": 1053, "ĠThis": 1054, "ref": 1055, "_S": 1056, "Ġstatic": 1057, "roll": 1058, "Ġjust": 1059, "Ġresult": 1060, "ian": 1061, "idth": 1062, "Ġthem": 1063, "der": 1064, "reak": 1065, "Con": 1066, "://": 1067, "ule": 1068, "...": 1069, "arch": 1070, "ement": 1071, "Ġ<<": 1072, "ush": 1073, "ense": 1074, "arr": 1075, "Ġinto": 1076, "cess": 1077, "amp": 1078, "ied": 1079, "ument": 1080, "Ġ\\": 1081, "],": 1082, "wo": 1083, "als": 1084, "Ġwhat": 1085, "anc": 1086, "Value": 1087, "='": 1088, "olum": 1089, "Ġpos": 1090, "ages": 1091, "ayer": 1092, "Ġsc": 1093, "ues": 1094, "_T": 1095, "Ġlist": 1096, "(s": 1097, "Ġcase": 1098, "Ch": 1099, "ponent": 1100, "Ġz": 1101, "Ġkn": 1102, "let": 1103, "DE": 1104, "red": 1105, "Ġfe": 1106, "Ġ,": 1107, "(t": 1108, "Ġfirst": 1109, "word": 1110, "Ġimport": 1111, "Ġact": 1112, "Ġchar": 1113, "CT": 1114, "ĠTr": 1115, "ople": 1116, "={": 1117, "ĉf": 1118, "ient": 1119, "cent": 1120, ".j": 1121, "lection": 1122, "Ġonly": 1123, "Ġprint": 1124, "mer": 1125, ".W": 1126, "ock": 1127, "Ġ--": 1128, "Text": 1129, "Ġop": 1130, "ank": 1131, "Ġits": 1132, "Ġback": 1133, "[\"": 1134, "Ġneed": 1135, "Ġcl": 1136, "Ġsub": 1137, "Ġla": 1138, "((": 1139, ".\"": 1140, "Object": 1141, "Ġstart": 1142, "file": 1143, "(self": 1144, "ner": 1145, "ey": 1146, "Ġuser": 1147, "Ġent": 1148, "ĠCom": 1149, "its": 1150, "ĠCon": 1151, "ouble": 1152, "ower": 1153, "item": 1154, "very": 1155, "ĠWe": 1156, "lick": 1157, "ĠQ": 1158, "php": 1159, "ttp": 1160, "':": 1161, "ics": 1162, "Ġunder": 1163, ".L": 1164, ");": 1165, "ices": 1166, "Ġreg": 1167, "SS": 1168, "Ġthen": 1169, "reat": 1170, "ious": 1171, ".G": 1172, "ek": 1173, "irect": 1174, "heck": 1175, "cript": 1176, "ning": 1177, "ĠUn": 1178, "Ġmay": 1179, "ĠWh": 1180, "Bo": 1181, "Item": 1182, "struct": 1183, ".st": 1184, "ream": 1185, "ible": 1186, "loat": 1187, "Ġorg": 1188, "und": 1189, "sum": 1190, "_in": 1191, "../": 1192, "_M": 1193, "Ġhow": 1194, "rite": 1195, "To": 1196, "ww": 1197, "Ġpeople": 1198, "index": 1199, ".n": 1200, "http": 1201, "(m": 1202, "ector": 1203, "Ġind": 1204, "Ġjav": 1205, "ĠHe": 1206, "_st": 1207, "ful": 1208, "ole": 1209, "Ġshould": 1210, "opy": 1211, "elp": 1212, "ier": 1213, "_name": 1214, "erson": 1215, "ION": 1216, "ote": 1217, "Ġtest": 1218, "Ġbet": 1219, "rror": 1220, "ular": 1221, "ãĢ": 1222, "ĠÐ": 1223, "bs": 1224, "ting": 1225, "Ġmake": 1226, "Tr": 1227, "Ġafter": 1228, "arget": 1229, "RO": 1230, "olumn": 1231, "rc": 1232, "_re": 1233, "define": 1234, "Ġright": 1235, "right": 1236, "day": 1237, "Ġlong": 1238, "[]": 1239, "(p": 1240, "td": 1241, "cond": 1242, "ĠPro": 1243, "Ġrem": 1244, "ptions": 1245, "vid": 1246, ".g": 1247, "Ġext": 1248, "Ġ__": 1249, "pace": 1250, "mp": 1251, "Ġmin": 1252, "stance": 1253, "air": 1254, "action": 1255, "wh": 1256, "type": 1257, "util": 1258, "ait": 1259, "<?": 1260, "IC": 1261, "text": 1262, "Ġph": 1263, "Ġfl": 1264, ".M": 1265, "ccess": 1266, "br": 1267, "fore": 1268, "ersion": 1269, ".re": 1270, "ateg": 1271, "Ġloc": 1272, "ins": 1273, "-s": 1274, "trib": 1275, "ĠInt": 1276, "Ġarray": 1277, ",\"": 1278, "Pro": 1279, "(c": 1280, "ession": 1281, "Ġshe": 1282, "\"]": 1283, "aph": 1284, "Ġexp": 1285, "erty": 1286, "ĠSe": 1287, "Ġpar": 1288, "unc": 1289, "ET": 1290, "Ġread": 1291, "print": 1292, "Ġrel": 1293, "Ġform": 1294, "Ġdr": 1295, "Exception": 1296, "input": 1297, "Ġtrans": 1298, "########": 1299, "order": 1300, "By": 1301, "Ġaw": 1302, "ities": 1303, "uff": 1304, "play": 1305, ".add": 1306, "ĠâĢĵ": 1307, "Ġwant": 1308, "Ġcomp": 1309, "ments": 1310, "Ġ||": 1311, "az": 1312, "be": 1313, "Ġnumber": 1314, "Ġrequire": 1315, "ĠEx": 1316, "Ġcol": 1317, "Ġkey": 1318, "ember": 1319, "Ġtwo": 1320, "Ġsize": 1321, "Ġwhere": 1322, "UT": 1323, "result": 1324, "ĠĠĠĠĠĠĠĠĠĠĠĠĠĠĠĠĠĠĠĠĠĠĠĠĠĠĠĠĠĠĠ": 1325, "ough": 1326, "orld": 1327, "ood": 1328, "uch": 1329, "ative": 1330, "ger": 1331, "arent": 1332, "Ġ/*": 1333, "Ġarg": 1334, "Ġwhile": 1335, "(this": 1336, "Ġrec": 1337, "Ġdif": 1338, "State": 1339, "Ġspec": 1340, "ride": 1341, "_F": 1342, "Ġlook": 1343, "AM": 1344, "ility": 1345, "eter": 1346, "âĢĻt": 1347, "ĊĊĊ": 1348, "ayout": 1349, "--------------------------------": 1350, "ager": 1351, "Ġcould": 1352, "Ġbr": 1353, "ends": 1354, "ures": 1355, "Ġknow": 1356, "ets": 1357, "ĠIf": 1358, "ĠSh": 1359, ".w": 1360, "back": 1361, "Ġser": 1362, "Ġ+=": 1363, "Ġfr": 1364, "Ġhand": 1365, "Ind": 1366, "ULL": 1367, "Im": 1368, "Ġmost": 1369, "Ġtry": 1370, "Ġnow": 1371, "rough": 1372, "ackage": 1373, "Ġhim": 1374, "._": 1375, "ify": 1376, "Ġbreak": 1377, "ren": 1378, "#define": 1379, "itt": 1380, "Ġap": 1381, "(n": 1382, "ĠYou": 1383, "-m": 1384, "Ġevery": 1385, "ustom": 1386, "lient": 1387, "ocument": 1388, "cription": 1389, "Error": 1390, "-b": 1391, "Ð¾": 1392, "][": 1393, "trans": 1394, "Ġpoint": 1395, "Ġstd": 1396, "Ġfil": 1397, "Time": 1398, "Ġmod": 1399, "Ġ->": 1400, "Ġerror": 1401, "ah": 1402, "Ġtext": 1403, "roller": 1404, "lose": 1405, "ql": 1406, "Ġpol": 1407, "></": 1408, "Ġshow": 1409, "User": 1410, "ased": 1411, "Ġfind": 1412, "Ð°": 1413, "ED": 1414, "span": 1415, "enu": 1416, "Ġcurrent": 1417, "Ġused": 1418, "cept": 1419, "clud": 1420, "Ġplay": 1421, "Ġlog": 1422, "ution": 1423, "fl": 1424, "Ġsee": 1425, "indows": 1426, "Ġhelp": 1427, "Ġthese": 1428, "Ġpass": 1429, "Ġdown": 1430, "Ġeven": 1431, "ason": 1432, "uild": 1433, "from": 1434, "(d": 1435, "Ġbl": 1436, "label": 1437, "else": 1438, "Ðµ": 1439, "Ġ(!": 1440, "ized": 1441, "(),": 1442, "Ġob": 1443, "Ġitem": 1444, "ump": 1445, "UR": 1446, "orn": 1447, "Ġdon": 1448, "Se": 1449, "man": 1450, "ample": 1451, "tn": 1452, "================": 1453, "He": 1454, "gram": 1455, "Ġdid": 1456, "wn": 1457, "_h": 1458, "iver": 1459, "Ġsm": 1460, "Ġthrough": 1461, "ĠAn": 1462, "che": 1463, "Ġinv": 1464, "ouse": 1465, "Ġes": 1466, "ĠNew": 1467, "export": 1468, "mary": 1469, "uto": 1470, "ler": 1471, "Ġlast": 1472, "Ġevent": 1473, "try": 1474, "ï¼": 1475, "ily": 1476, "igned": 1477, "ines": 1478, "ollow": 1479, "icense": 1480, "sole": 1481, "lear": 1482, "(int": 1483, "Ġagain": 1484, "Ġhigh": 1485, "html": 1486, "Index": 1487, "uthor": 1488, "Ġline": 1489, "Event": 1490, "_D": 1491, "Ġdoes": 1492, "itial": 1493, "Ġcr": 1494, "ars": 1495, "Ġtem": 1496, "cause": 1497, "face": 1498, "Ġ`": 1499, "_A": 1500, "Button": 1501, "ature": 1502, "ected": 1503, "ES": 1504, "ister": 1505, "Ġbefore": 1506, "ale": 1507, "other": 1508, "Ġbecause": 1509, "roid": 1510, "Ġed": 1511, "ik": 1512, "reg": 1513, "ĠDe": 1514, "Ġdist": 1515, "Ġstate": 1516, "Ġcons": 1517, "rint": 1518, "att": 1519, "Ġhere": 1520, "ined": 1521, "Ġfinal": 1522, "Ġ\"\"": 1523, "Key": 1524, "LO": 1525, "Ġdel": 1526, "pty": 1527, "thing": 1528, "ĠAnd": 1529, "Ġrun": 1530, "ĠX": 1531, "ym": 1532, ".app": 1533, "Ġvery": 1534, "ces": 1535, "_N": 1536, "ared": 1537, "ward": 1538, "list": 1539, "ited": 1540, "olog": 1541, "itch": 1542, "Box": 1543, "ife": 1544, "Ġac": 1545, "Ġmodel": 1546, "Ġmon": 1547, "Ġway": 1548, "lete": 1549, "Ġcall": 1550, "Ġatt": 1551, "Ġcal": 1552, "vert": 1553, "Ġdec": 1554, "lease": 1555, "oun": 1556, "fr": 1557, "formation": 1558, "etail": 1559, "Ġnum": 1560, "aj": 1561, "query": 1562, "Ġwell": 1563, "Ġobject": 1564, "ĠAs": 1565, "Ġyears": 1566, "Color": 1567, "IS": 1568, "Ġdefault": 1569, "Wh": 1570, "Ġins": 1571, "aint": 1572, "Ġjava": 1573, "Ġsim": 1574, "ĠAr": 1575, "mon": 1576, "til": 1577, "):": 1578, "Set": 1579, "atter": 1580, "Ġview": 1581, "Ġpres": 1582, "array": 1583, "We": 1584, "At": 1585, "Ġbel": 1586, "Ġmany": 1587, "Man": 1588, "ender": 1589, "Ġbeing": 1590, "Ġgood": 1591, "ational": 1592, "ware": 1593, ".log": 1594, "Ġusing": 1595, "_B": 1596, "Ġ:=": 1597, "_w": 1598, "ists": 1599, "lish": 1600, "Ġstud": 1601, "ĠAl": 1602, "Ġgu": 1603, "config": 1604, "uring": 1605, "time": 1606, "oken": 1607, "amespace": 1608, "Ġrequest": 1609, "Ġchild": 1610, "ĠÃ": 1611, "lob": 1612, "Ġparam": 1613, "Ġecho": 1614, "function": 1615, "ps": 1616, "Element": 1617, "alk": 1618, "lication": 1619, "by": 1620, "Size": 1621, "rawing": 1622, "Ġperson": 1623, "ĠĠĠĠĠĠĠĠĠĠĠĠĠĠĠĠĠ": 1624, "\\n": 1625, "object": 1626, "ince": 1627, "En": 1628, "File": 1629, "uf": 1630, "ffect": 1631, "AC": 1632, "Ġstyle": 1633, "summary": 1634, "Ġque": 1635, "_r": 1636, "Ġ($": 1637, "Model": 1638, "ident": 1639, "Ġmethod": 1640, "IL": 1641, "ott": 1642, "less": 1643, "ING": 1644, "Ġ()": 1645, "Ġexpect": 1646, "ync": 1647, "package": 1648, "urs": 1649, "Ġprot": 1650, "./": 1651, "pre": 1652, "ma": 1653, "Ġsur": 1654, "Ġfound": 1655, "Info": 1656, "par": 1657, "imes": 1658, ".e": 1659, "ains": 1660, "Ġpost": 1661, "-d": 1662, "olean": 1663, "Ġsl": 1664, "PE": 1665, "Ġsuch": 1666, "select": 1667, "ainer": 1668, "Ġthink": 1669, "Ġdiffer": 1670, ".r": 1671, "FF": 1672, "ool": 1673, "plate": 1674, "qual": 1675, "ĠFor": 1676, "Ġmuch": 1677, "uc": 1678, "(new": 1679, "odule": 1680, "Ġsom": 1681, "Ġhttp": 1682, "ĠList": 1683, "Ġcount": 1684, "Ġinst": 1685, "char": 1686, "mit": 1687, ".id": 1688, "aking": 1689, "Ġgener": 1690, "px": 1691, "vice": 1692, "_data": 1693, "ĠNULL": 1694, "idd": 1695, "ãĢĤ": 1696, "Ġmed": 1697, "org": 1698, "ider": 1699, "ache": 1700, "work": 1701, "Ġcheck": 1702, "ween": 1703, "Ġ((": 1704, "the": 1705, "ants": 1706, "><": 1707, ".B": 1708, "-c": 1709, "Ġopen": 1710, "Ġest": 1711, "ĠĠĠĠĠĠĠĠĊ": 1712, "Ġnext": 1713, "IM": 1714, "ÑĤ": 1715, "OT": 1716, "Ã³": 1717, "Ġfollow": 1718, "content": 1719, "ĠĠĠĠĠĠĠĠĠĠĠĠ": 1720, "Ġinclud": 1721, "HE": 1722, "ĠRes": 1723, "Ġhref": 1724, "Ð¸": 1725, "Ġcar": 1726, "ypes": 1727, "image": 1728, "Un": 1729, "Ġbool": 1730, "AD": 1731, "Ġgame": 1732, "rows": 1733, "*/": 1734, "velop": 1735, "Ġpath": 1736, "ision": 1737, "Ġeach": 1738, "ĠPl": 1739, "_type": 1740, "Path": 1741, "nection": 1742, "Ġav": 1743, "').": 1744, "Ġsupport": 1745, "ENT": 1746, "rem": 1747, "\").": 1748, "Ġown": 1749, "Ġcor": 1750, "count": 1751, "miss": 1752, "ually": 1753, "Ġmem": 1754, "std": 1755, "ience": 1756, "search": 1757, "Form": 1758, "Ġsex": 1759, "ename": 1760, "Ġsign": 1761, "Ġet": 1762, "ĠĠĠĠĠĠĠĠĠĠ": 1763, "','": 1764, "ĠApp": 1765, "Ġthose": 1766, "off": 1767, "Ġerr": 1768, "Ġsystem": 1769, "Ġbest": 1770, "code": 1771, "Ġsame": 1772, "Ġdi": 1773, "uss": 1774, "Ġcreate": 1775, "ather": 1776, "Array": 1777, ".in": 1778, "fe": 1779, "Service": 1780, "UN": 1781, "ats": 1782, "ĠZ": 1783, "alth": 1784, "Ġmade": 1785, "true": 1786, "AB": 1787, "Ġmark": 1788, "rid": 1789, "ified": 1790, "yn": 1791, "press": 1792, "Ġgroup": 1793, "Ġfin": 1794, "ĠLicense": 1795, "Field": 1796, "eger": 1797, "Ġworld": 1798, "iness": 1799, "ty": 1800, "Ġprocess": 1801, "(b": 1802, "Ġcre": 1803, "arn": 1804, "ives": 1805, "Ġmain": 1806, "ideo": 1807, "_g": 1808, "AG": 1809, "valid": 1810, "img": 1811, "PI": 1812, "Ġcolor": 1813, "Ġreport": 1814, "Ġtake": 1815, "rib": 1816, "OM": 1817, "Ġday": 1818, "Request": 1819, "Ġsk": 1820, "bers": 1821, ".Add": 1822, "oot": 1823, "Image": 1824, "Ġcomple": 1825, "ollection": 1826, "Ġtop": 1827, "Ġfree": 1828, "AS": 1829, "De": 1830, "ĠOn": 1831, "IG": 1832, "eta": 1833, "Date": 1834, "Ġaction": 1835, "Over": 1836, "itor": 1837, "ĠĠĠĠĠĠĠĠĠĠĠĠĠĠĠĠĠĠĠĠĠĠĠĠĠĠĠĠĠĠĠĠĠĠĠ": 1838, "not": 1839, "Ġindex": 1840, "her": 1841, "icon": 1842, "On": 1843, "ivity": 1844, "mand": 1845, "OL": 1846, "Ġreal": 1847, "Ġmax": 1848, "land": 1849, "....": 1850, "raph": 1851, "Ġbuild": 1852, "leg": 1853, "assword": 1854, "âĢ¦": 1855, "ook": 1856, "uck": 1857, "Ġmessage": 1858, "test": 1859, "ivers": 1860, "Ġinput": 1861, "Ġart": 1862, "Ġbetween": 1863, "Get": 1864, "enter": 1865, "ground": 1866, "ene": 1867, "Ã¡": 1868, ".length": 1869, "Node": 1870, "(i": 1871, "Class": 1872, "for": 1873, "ĠâĢĶ": 1874, "ten": 1875, "oin": 1876, "Ġke": 1877, "ui": 1878, "ĠIN": 1879, "Ġtable": 1880, "sub": 1881, "ĠLe": 1882, "Ġhead": 1883, "Ġmust": 1884, ".util": 1885, "Context": 1886, "Ġorder": 1887, "Ġmov": 1888, "over": 1889, "Ġcontin": 1890, "Ġsay": 1891, "static": 1892, ".Text": 1893, "ĠclassName": 1894, "pany": 1895, "Ġter": 1896, "head": 1897, "rg": 1898, "Ġproduct": 1899, "This": 1900, ".âĢĿ": 1901, "ĠBut": 1902, "loy": 1903, "Ġdouble": 1904, "sg": 1905, "Ġplace": 1906, ".x": 1907, "message": 1908, "Ġinformation": 1909, "private": 1910, "Ġoper": 1911, "ced": 1912, "db": 1913, "\"></": 1914, "Param": 1915, "icle": 1916, "Ġweek": 1917, "Ġprop": 1918, "table": 1919, "idget": 1920, "place": 1921, "Prop": 1922, "ĠAll": 1923, "els": 1924, "box": 1925, ".R": 1926, "ĠTo": 1927, "iter": 1928, "Sh": 1929, "uration": 1930, "older": 1931, "_list": 1932, "come": 1933, "Ġsw": 1934, "ization": 1935, "bl": 1936, "Ġprogram": 1937, "(e": 1938, "ape": 1939, "check": 1940, "Ġund": 1941, "ategory": 1942, "ags": 1943, "Ġresponse": 1944, "US": 1945, "request": 1946, "Ġstruct": 1947, "escription": 1948, "Ġcode": 1949, "_H": 1950, "uffer": 1951, "Ġwithout": 1952, "lobal": 1953, "Manager": 1954, "ilter": 1955, "PO": 1956, "option": 1957, "Ġsol": 1958, "Ġ===": 1959, "akes": 1960, "Controller": 1961, "Message": 1962, "Ġref": 1963, "ever": 1964, "ĠSo": 1965, "aining": 1966, ".append": 1967, "Ġstill": 1968, "Ġprovid": 1969, "Ġassert": 1970, "med": 1971, "Ġcap": 1972, "usiness": 1973, "Ġrep": 1974, "tings": 1975, "ved": 1976, ".N": 1977, "api": 1978, "OD": 1979, "Ġfield": 1980, "iven": 1981, "oto": 1982, "âĢľ": 1983, "col": 1984, "(x": 1985, "ght": 1986, "Result": 1987, "Code": 1988, ".is": 1989, "link": 1990, "Ġcour": 1991, "An": 1992, "Ġteam": 1993, "ift": 1994, "Ġsecond": 1995, "Ġgoing": 1996, "Ġrange": 1997, "_E": 1998, "ness": 1999, "Ġfam": 2000, "Ġnil": 2001, "ĠCont": 2002, "ailable": 2003, "utes": 2004, "atab": 2005, "Ġfact": 2006, "Ġvis": 2007, "(&": 2008, "ĠAN": 2009, "Al": 2010, "title": 2011, "Ġandroid": 2012, "CE": 2013, "\\\"": 2014, "irt": 2015, "Ġwrit": 2016, "Ð½": 2017, "ftware": 2018, "ond": 2019, "Ġret": 2020, "osition": 2021, "Ġhome": 2022, "Ġleft": 2023, "args": 2024, "meric": 2025, "Ġdirect": 2026, "oci": 2027, "Pl": 2028, "As": 2029, "ret": 2030, "ado": 2031, "Of": 2032, "chn": 2033, "ĠGet": 2034, "ee": 2035, "ross": 2036, "();": 2037, "____": 2038, ".ph": 2039, "It": 2040, "oute": 2041, "Ġexper": 2042, "chool": 2043, "www": 2044, "},": 2045, "Ġallow": 2046, "ĠÂ": 2047, "())": 2048, "size": 2049, "ism": 2050, "ai": 2051, "tract": 2052, "ane": 2053, "context": 2054, "Ġbeg": 2055, "CH": 2056, "Ġpage": 2057, "hip": 2058, "no": 2059, "core": 2060, "sp": 2061, "Ġdifferent": 2062, "iable": 2063, "ĠMe": 2064, "_IN": 2065, "button": 2066, "ĠIs": 2067, "ervices": 2068, "Ġca": 2069, "Ġaround": 2070, "App": 2071, "ration": 2072, "Ġrece": 2073, "Ġreally": 2074, "Ġimage": 2075, "Ġtarget": 2076, "Ġdep": 2077, "opyright": 2078, "tra": 2079, "ingle": 2080, "ital": 2081, "Layout": 2082, "Ġboth": 2083, "Override": 2084, "arm": 2085, "aterial": 2086, "iled": 2087, "Ġput": 2088, "Qu": 2089, "ÑĢ": 2090, "ung": 2091, "map": 2092, "Ġlevel": 2093, "Component": 2094, "book": 2095, "creen": 2096, "_RE": 2097, "Ġconfig": 2098, "ãģ": 2099, "Or": 2100, ".data": 2101, "Ġdocument": 2102, "\",\"": 2103, "tribute": 2104, "ux": 2105, "Log": 2106, "ference": 2107, "post": 2108, "_e": 2109, "Ġlocal": 2110, "andom": 2111, "assert": 2112, "Val": 2113, "lected": 2114, "ina": 2115, "atabase": 2116, "Add": 2117, "Ġcontent": 2118, ".print": 2119, "signed": 2120, "ric": 2121, "Ġfa": 2122, "-f": 2123, "ived": 2124, "Ġquest": 2125, ".ex": 2126, "Ġfloat": 2127, "Ġdevelop": 2128, "Map": 2129, "ading": 2130, "Ġposs": 2131, "UE": 2132, "namespace": 2133, "_O": 2134, ".Get": 2135, ">(": 2136, "json": 2137, "etails": 2138, "Ġtoo": 2139, "Ġextends": 2140, "ĠNone": 2141, "Ġfore": 2142, "(String": 2143, "format": 2144, "Ġgreat": 2145, "inter": 2146, "cale": 2147, "Ñģ": 2148, "ron": 2149, "iving": 2150, "Ent": 2151, "ency": 2152, "xt": 2153, "oy": 2154, "Ġmonth": 2155, "Ġhapp": 2156, "Ġsuper": 2157, "bar": 2158, "default": 2159, "_de": 2160, "ords": 2161, "ln": 2162, "ĠInd": 2163, "ases": 2164, "Ġtitle": 2165, "Ġcontext": 2166, "oh": 2167, "-p": 2168, "Em": 2169, "Ġmet": 2170, "Test": 2171, "Ġlife": 2172, "_v": 2173, "ĠUS": 2174, "UI": 2175, "ocation": 2176, "md": 2177, "Ġ]": 2178, "sw": 2179, "Ġincre": 2180, "script": 2181, "ential": 2182, "ways": 2183, ".de": 2184, "Ġsrc": 2185, "Ġcatch": 2186, "ĠAmeric": 2187, "ĠĠĠĠĠĠĠĠĠĠĠĠĠĠ": 2188, "Ġpay": 2189, "plit": 2190, "âĢĶ": 2191, "Ġcoun": 2192, "obj": 2193, ".php": 2194, "Ġchange": 2195, "ething": 2196, "'re": 2197, "aster": 2198, "los": 2199, "lation": 2200, "ĠĠĊ": 2201, "Le": 2202, "Ã¤": 2203, "({": 2204, "ready": 2205, "ĠNo": 2206, "Ġposition": 2207, "Ġold": 2208, "Ġbook": 2209, "abled": 2210, "bug": 2211, "Hand": 2212, "isplay": 2213, "aving": 2214, "Ġgover": 2215, "Ġversion": 2216, "System": 2217, "nect": 2218, "response": 2219, "Style": 2220, "Up": 2221, "angu": 2222, "Ġthree": 2223, "init": 2224, "ero": 2225, "Ġlaw": 2226, "Ġbase": 2227, "email": 2228, "(l": 2229, "_V": 2230, "Ġconf": 2231, "ATE": 2232, "Ġduring": 2233, "tes": 2234, "Ġconsole": 2235, "ĠPr": 2236, "Ġspe": 2237, "ves": 2238, "path": 2239, "ialog": 2240, "dition": 2241, "_to": 2242, "ards": 2243, "Ġagainst": 2244, "etwork": 2245, "ĠPh": 2246, "_L": 2247, "cur": 2248, "imit": 2249, "With": 2250, "Ġpower": 2251, "ium": 2252, "Ġwom": 2253, "left": 2254, "ources": 2255, "atri": 2256, "ĠIm": 2257, "ĠMan": 2258, "orth": 2259, "${": 2260, "quals": 2261, "ese": 2262, "_size": 2263, "Ġiss": 2264, "otal": 2265, "-g": 2266, "ique": 2267, "rame": 2268, "Ġwidth": 2269, "erg": 2270, ")(": 2271, "ittle": 2272, "TR": 2273, "ĠThey": 2274, "ences": 2275, "rl": 2276, "ons": 2277, "Ġlabel": 2278, ".y": 2279, "-t": 2280, "update": 2281, "anel": 2282, "sc": 2283, ".to": 2284, "Ġproject": 2285, "Ã¼": 2286, "Ġelement": 2287, "Ġsuccess": 2288, ".sh": 2289, "ram": 2290, "ched": 2291, "Ġdate": 2292, "Ġtot": 2293, "All": 2294, "ification": 2295, "Ġtri": 2296, "chem": 2297, "my": 2298, "Ġbig": 2299, "ĠAd": 2300, "ĠAt": 2301, "ots": 2302, "num": 2303, "Act": 2304, "Ġmap": 2305, "era": 2306, "cope": 2307, ".$": 2308, ",âĢĿ": 2309, "Ġpop": 2310, "Ġfew": 2311, "Ġlen": 2312, "uid": 2313, "eters": 2314, "ules": 2315, "ÃŃ": 2316, "source": 2317, "https": 2318, "Ġdem": 2319, "Ġear": 2320, "################": 2321, "Ġmatch": 2322, "ories": 2323, "aces": 2324, "ĠCl": 2325, "Ġnode": 2326, "irc": 2327, "local": 2328, "unity": 2329, "Ġanother": 2330, "<<": 2331, "ogle": 2332, "Ġsit": 2333, "ework": 2334, "TE": 2335, ".I": 2336, "NS": 2337, "ology": 2338, "ought": 2339, ">>": 2340, "Ġcare": 2341, "state": 2342, "Ġeffect": 2343, "++)": 2344, "_file": 2345, "ending": 2346, "Line": 2347, "For": 2348, "ior": 2349, "ĠSc": 2350, "Ġfun": 2351, "])": 2352, "start": 2353, "vious": 2354, "Ġ},": 2355, "ours": 2356, "Ġleg": 2357, "Ġservice": 2358, "Ġsince": 2359, "iron": 2360, "Label": 2361, "Ġnon": 2362, "Ġlos": 2363, "iction": 2364, "Ġfull": 2365, "acter": 2366, "board": 2367, "gress": 2368, "Ġturn": 2369, "ither": 2370, ".size": 2371, "Ġbody": 2372, "resh": 2373, "eturn": 2374, "(_": 2375, "yles": 2376, "ormal": 2377, "pi": 2378, "Ġsomething": 2379, "!--": 2380, "uint": 2381, "Ġprodu": 2382, "Ġstand": 2383, "Ġproble": 2384, "Ġavailable": 2385, "mt": 2386, "ĠBl": 2387, "Ġ...": 2388, "Ġblock": 2389, "Input": 2390, "Ġkeep": 2391, "Count": 2392, "open": 2393, "Ġ['": 2394, "Ġthrow": 2395, "uilder": 2396, "Action": 2397, "Ġthings": 2398, "True": 2399, "Ġurl": 2400, "ĠBo": 2401, "printf": 2402, "Ġred": 2403, "js": 2404, ".create": 2405, "ĠOr": 2406, "Status": 2407, "Instance": 2408, "Ġcontrol": 2409, "Ġcome": 2410, "Ġcustom": 2411, "location": 2412, "model": 2413, "Ġsource": 2414, "Ġeas": 2415, ".out": 2416, "oney": 2417, "Ġawait": 2418, "Ġpartic": 2419, "AP": 2420, "ublish": 2421, "odes": 2422, "_pro": 2423, "ply": 2424, "riter": 2425, "Ġprov": 2426, "Ġmill": 2427, "HT": 2428, "Ġchang": 2429, "Ġask": 2430, "ĠĠĠĠĠĠĠĠĠĠĠĠĠĠĠĠĠĠĠĠĠ": 2431, "Ġoutput": 2432, "Ġemail": 2433, ".push": 2434, "ination": 2435, "atrix": 2436, "Table": 2437, "uccess": 2438, "ĠĠĠĠĠĠĠĠĠĠĠĠĠĠĠĠĠĠĠĠĠĠĠĠĠĠĠĠĠĠĠĠĠĠĠĠĠĠĠ": 2439, "Ġdisc": 2440, "([": 2441, "Ġbusiness": 2442, "height": 2443, ".html": 2444, "ta": 2445, "field": 2446, "Ġrequired": 2447, "_R": 2448, "Ġgovern": 2449, "lex": 2450, ".,": 2451, "ĠSet": 2452, "urch": 2453, "///": 2454, "ts": 2455, "af": 2456, "Ġmight": 2457, "istory": 2458, "Str": 2459, "Ġnever": 2460, "Response": 2461, "arse": 2462, "ada": 2463, "ĠHow": 2464, "Ġ;": 2465, "Ġhard": 2466, "Ad": 2467, "Ġintern": 2468, "used": 2469, "(data": 2470, "mod": 2471, "annel": 2472, "Ġnp": 2473, "ugg": 2474, "Ġcalled": 2475, "body": 2476, "Ġcho": 2477, "(r": 2478, "_set": 2479, "ird": 2480, "Ġ>=": 2481, "Ġoptions": 2482, "ĠGener": 2483, "Ġheight": 2484, "Point": 2485, "You": 2486, "ety": 2487, "Click": 2488, "Ġsmall": 2489, "Ġide": 2490, "Ġaccess": 2491, "anguage": 2492, "Ġprotected": 2493, "Ġjob": 2494, "ĠThere": 2495, "Def": 2496, "Ġaddress": 2497, "Ġuint": 2498, "Not": 2499, "oo": 2500, "aps": 2501, "<div": 2502, "ained": 2503, "atur": 2504, "Ġsum": 2505, "-w": 2506, "ĠDate": 2507, "Ġlittle": 2508, "Ġfri": 2509, "YPE": 2510, "Ġport": 2511, "eh": 2512, "pring": 2513, "_path": 2514, "Ġstatus": 2515, "aim": 2516, "bool": 2517, "Ġappe": 2518, "Ġos": 2519, ".name": 2520, "ension": 2521, "_G": 2522, "Ġupdate": 2523, "Config": 2524, "aff": 2525, "ERR": 2526, "Ġ<=": 2527, "ately": 2528, "uction": 2529, "ĠTe": 2530, "Ġlink": 2531, "ĠUser": 2532, ".find": 2533, ".org": 2534, "me": 2535, "Ġgiven": 2536, "Out": 2537, "Ġbetter": 2538, "Page": 2539, "Ġfeel": 2540, "enn": 2541, "ML": 2542, "Ġalready": 2543, "Ġincluding": 2544, "oogle": 2545, "ru": 2546, "ically": 2547, "prop": 2548, "lean": 2549, "outer": 2550, "Ġalways": 2551, "ording": 2552, "If": 2553, "orage": 2554, "Ġparent": 2555, "vis": 2556, "Ġgot": 2557, "stand": 2558, "Ġless": 2559, "/s": 2560, "ĠAss": 2561, "apt": 2562, "ired": 2563, "ĠAdd": 2564, "Ġaccount": 2565, "ploy": 2566, "Ġder": 2567, "resent": 2568, "Ġlot": 2569, "Ġvalid": 2570, "Ġbit": 2571, "ponents": 2572, "Ġfollowing": 2573, "_ex": 2574, "SON": 2575, "Ġsure": 2576, "ocial": 2577, "Ġprom": 2578, "erties": 2579, "header": 2580, ".pro": 2581, "Ġboolean": 2582, "Ġsearch": 2583, "ken": 2584, "Ġorig": 2585, "Ġer": 2586, "Ed": 2587, "EM": 2588, "aut": 2589, "ling": 2590, "ality": 2591, "ById": 2592, "bed": 2593, "ether": 2594, "posit": 2595, "Ġinvest": 2596, "ĠOR": 2597, "Ġsays": 2598, "mission": 2599, "AME": 2600, "Ġtemp": 2601, "oad": 2602, "Ġrest": 2603, "info": 2604, "Ġinterest": 2605, "Arg": 2606, "Ġperform": 2607, "pons": 2608, "ĠView": 2609, "Ġver": 2610, "lib": 2611, "(const": 2612, "Util": 2613, "Listener": 2614, "arge": 2615, "Ġmult": 2616, "Ġdie": 2617, "Ġsite": 2618, "EL": 2619, "Ġvalues": 2620, "pen": 2621, "No": 2622, "icro": 2623, "Ġbeh": 2624, "Ġ'./": 2625, "acy": 2626, "rec": 2627, "()->": 2628, "\"))": 2629, "Content": 2630, "_W": 2631, "plement": 2632, "Ġwon": 2633, "Ġvideo": 2634, "adi": 2635, "point": 2636, "%%": 2637, "Ġgl": 2638, "erved": 2639, "viron": 2640, "IF": 2641, "uted": 2642, "ãĥ": 2643, "'m": 2644, "Ġcert": 2645, "Ġprof": 2646, "Ġcell": 2647, "ari": 2648, "Ġplayer": 2649, "ais": 2650, "Ġcost": 2651, "Ġhum": 2652, "(R": 2653, "Ġoffic": 2654, "ks": 2655, ".text": 2656, "atures": 2657, "Ġtotal": 2658, "ope": 2659, "Ġstat": 2660, "UM": 2661, "Ġload": 2662, "ights": 2663, "Ġclear": 2664, "uro": 2665, "Ġtechn": 2666, "upport": 2667, "IR": 2668, "Ġrow": 2669, "Ġseem": 2670, "Ġq": 2671, "Ġshort": 2672, "ĠNot": 2673, "ipp": 2674, "Group": 2675, "section": 2676, "max": 2677, "irl": 2678, "Ġoverride": 2679, "Ġcompany": 2680, "Ġdone": 2681, "Ġgre": 2682, ".Re": 2683, "Ġbelie": 2684, "rist": 2685, "Ġhealth": 2686, "ANT": 2687, "ĠBe": 2688, ".value": 2689, "ĠGr": 2690, "ottom": 2691, "Ġargs": 2692, "PT": 2693, "status": 2694, "func": 2695, "uments": 2696, "-h": 2697, "Number": 2698, "ĠLog": 2699, "erver": 2700, "ament": 2701, "Ġobj": 2702, "inc": 2703, "Ġchildren": 2704, "icy": 2705, "IZ": 2706, "ands": 2707, "ably": 2708, "Ġdistrib": 2709, "Ġcur": 2710, "erial": 2711, "Ġdays": 2712, "reated": 2713, "rect": 2714, "-l": 2715, "irm": 2716, "idden": 2717, "omb": 2718, "Ġinitial": 2719, ".js": 2720, "Ġâ": 2721, "Query": 2722, "Ġonline": 2723, "imal": 2724, ".con": 2725, "au": 2726, "Url": 2727, "control": 2728, "irection": 2729, "Ġinstance": 2730, "ORT": 2731, "ĠFr": 2732, "where": 2733, "Ġorgan": 2734, "apter": 2735, "Ġreason": 2736, "options": 2737, "ĠMar": 2738, "(a": 2739, "Ġwithin": 2740, "ODE": 2741, "_DE": 2742, "admin": 2743, "ended": 2744, "Ġdesign": 2745, "ĠData": 2746, "une": 2747, "ĠFile": 2748, "root": 2749, "Ġcent": 2750, "Ġarr": 2751, "_add": 2752, "len": 2753, "page": 2754, ",'": 2755, "_str": 2756, "Ġbro": 2757, "ability": 2758, "outh": 2759, "/c": 2760, "pose": 2761, "irtual": 2762, "earch": 2763, "_url": 2764, "argin": 2765, "Http": 2766, "Ġschool": 2767, "ava": 2768, "Ġconsider": 2769, ".label": 2770, "ĠArray": 2771, "web": 2772, "opt": 2773, ".println": 2774, "ulation": 2775, "Ġfunc": 2776, "PL": 2777, "Ġ\"\\": 2778, "ĠText": 2779, "actory": 2780, "(function": 2781, "null": 2782, "Ġeng": 2783, "down": 2784, "Ġinclude": 2785, "ĠEn": 2786, "ĠDr": 2787, "Ġdb": 2788, "!!": 2789, "side": 2790, "Ġinit": 2791, "quired": 2792, "ĠShe": 2793, "Column": 2794, "react": 2795, "Ġann": 2796, "Ġstop": 2797, "Ġlater": 2798, "ĠThat": 2799, "ention": 2800, "df": 2801, "UG": 2802, "ILE": 2803, "Ġclient": 2804, "raft": 2805, "ffer": 2806, "POST": 2807, "elper": 2808, "Ġlove": 2809, "quote": 2810, "oud": 2811, "Ġjson": 2812, "Ġable": 2813, "Ġmen": 2814, "AX": 2815, "ĠCopyright": 2816, "Ã¶": 2817, "avig": 2818, "req": 2819, "Client": 2820, "erc": 2821, "ilt": 2822, "pecial": 2823, "_com": 2824, "room": 2825, ".Name": 2826, "Ġgive": 2827, "amb": 2828, "ike": 2829, "Ġcondition": 2830, "client": 2831, "ators": 2832, ":\"": 2833, "Ġcopy": 2834, "uture": 2835, "iversity": 2836, "ernal": 2837, "{{": 2838, "ĠCan": 2839, "ounc": 2840, "do": 2841, "Ġocc": 2842, "Ġappro": 2843, "thers": 2844, "ze": 2845, "Ġeither": 2846, "ĠFl": 2847, "Ġimportant": 2848, "Ġlead": 2849, "attr": 2850, "ART": 2851, "Equal": 2852, "Ġda": 2853, "etch": 2854, "entity": 2855, "Ġfamily": 2856, "adding": 2857, "Ġoption": 2858, "Ġexist": 2859, "ica": 2860, "ĠObject": 2861, "'ve": 2862, "vers": 2863, "itional": 2864, "output": 2865, "ĠTrue": 2866, "ĠOF": 2867, "_time": 2868, "Ġoffer": 2869, "HER": 2870, "egin": 2871, "\"\"": 2872, "Ġwater": 2873, "Ġche": 2874, "ĠMy": 2875, "ored": 2876, "Ġstep": 2877, "ances": 2878, "CK": 2879, "AY": 2880, "struction": 2881, "(C": 2882, "ouch": 2883, "Stream": 2884, "active": 2885, "ama": 2886, "Entity": 2887, "product": 2888, "Ġgovernment": 2889, "ĠID": 2890, "ajor": 2891, "And": 2892, "Ġdisplay": 2893, "Ð»": 2894, "Ġtimes": 2895, "Ġfour": 2896, "Ġfar": 2897, "Ġpresent": 2898, "ĠNS": 2899, "uest": 2900, "Ġbas": 2901, "echo": 2902, "child": 2903, "ifier": 2904, "Handler": 2905, "Ġlib": 2906, "Property": 2907, "translation": 2908, "Ġroom": 2909, "Ġonce": 2910, "Ġ[]": 2911, "center": 2912, "================================": 2913, "Ġresults": 2914, "Ġcontinue": 2915, "Ġtalk": 2916, "_get": 2917, "Ġgrow": 2918, "eb": 2919, "ĠPublic": 2920, "OP": 2921, "ecute": 2922, "ols": 2923, "Ġ**": 2924, "Ġmass": 2925, "ured": 2926, ".class": 2927, "omic": 2928, "Ġmean": 2929, "ips": 2930, "Ġaut": 2931, "Ġuntil": 2932, "Ġmarket": 2933, "Ġarea": 2934, "uit": 2935, "Ġlength": 2936, "ĠWith": 2937, "structor": 2938, "event": 2939, "\"><": 2940, "ĠSp": 2941, "IV": 2942, "Ġmus": 2943, "iff": 2944, "Ġkind": 2945, "author": 2946, "ounds": 2947, "mb": 2948, "_key": 2949, "width": 2950, "pository": 2951, "Ġlight": 2952, "uk": 2953, "Row": 2954, "ohn": 2955, "alf": 2956, "vironment": 2957, "apper": 2958, "ollections": 2959, "Ġside": 2960, "_info": 2961, "Ġexample": 2962, "imary": 2963, "Ġwr": 2964, "Ġcamp": 2965, "cribe": 2966, "\"/": 2967, "Ġmiss": 2968, "way": 2969, "Ġbased": 2970, "Ġplan": 2971, "Vis": 2972, "omain": 2973, "unk": 2974, "Ġaway": 2975, "UP": 2976, "<T": 2977, "OS": 2978, "iod": 2979, "ĠMon": 2980, "âĢĻre": 2981, "Ġlik": 2982, "Ã§": 2983, "ively": 2984, ".v": 2985, "imer": 2986, "izer": 2987, "Sub": 2988, "Ġbutton": 2989, "ĠUp": 2990, "Ġexperience": 2991, "CL": 2992, "Ġrender": 2993, "_value": 2994, "Ġnear": 2995, "URL": 2996, "alt": 2997, "Ġcountry": 2998, "ibility": 2999, "ead": 3000, "Ġauthor": 3001, "Ġspecific": 3002, "base": 3003, "(name": 3004, "ones": 3005, "ĠDo": 3006, "Ġalong": 3007, "year": 3008, "Ġexpress": 3009, ".'": 3010, "env": 3011, "Ġbegin": 3012, "Ġsoftware": 3013, "Ġimp": 3014, "Ġwin": 3015, "Ã³n": 3016, "Ġthing": 3017, "Trans": 3018, "ĠTHE": 3019, "Ġ<?": 3020, "Ġwhy": 3021, "Ġdoesn": 3022, "ij": 3023, "ging": 3024, "Ġsingle": 3025, "offset": 3026, "arning": 3027, "ograph": 3028, "ley": 3029, "_count": 3030, "Ġanal": 3031, "create": 3032, "/m": 3033, "ĠReg": 3034, "unch": 3035, "=$": 3036, "isk": 3037, "Ġrights": 3038, "(M": 3039, "aper": 3040, ".model": 3041, "Ġpo": 3042, "empty": 3043, "artment": 3044, "Ġant": 3045, "ĠWhen": 3046, "Ġwomen": 3047, "ĠEd": 3048, "Ġseason": 3049, "Ġdest": 3050, "Ã£": 3051, "(h": 3052, "Ġpossible": 3053, "Ġsever": 3054, "Ġbtn": 3055, "Ġdidn": 3056, "Ġsent": 3057, "Ġenc": 3058, "Ġcommand": 3059, "_x": 3060, "Ġrecent": 3061, "olution": 3062, "vector": 3063, "ĠBy": 3064, "ĠMay": 3065, "ĠAct": 3066, "Ġmoney": 3067, "INT": 3068, "bsite": 3069, "sl": 3070, "attern": 3071, "ĠClass": 3072, "Ġtold": 3073, "udio": 3074, "current": 3075, "Ġequ": 3076, "Ġauto": 3077, "ĠState": 3078, "da": 3079, "msg": 3080, "Ġworking": 3081, "Ġquery": 3082, "ĠBr": 3083, "Ġwindow": 3084, "auth": 3085, "only": 3086, "Ġleast": 3087, "agn": 3088, "Ġexpl": 3089, "itter": 3090, "aring": 3091, "Ġcolumn": 3092, "ĠGeneral": 3093, "\":\"": 3094, "eral": 3095, "rior": 3096, "Ġrecord": 3097, "IB": 3098, "EX": 3099, "Ġdat": 3100, "Ġmaking": 3101, "ued": 3102, "ĠCar": 3103, "emp": 3104, "\".": 3105, "ĠMed": 3106, "Ġclose": 3107, "Ġpercent": 3108, "Ġpast": 3109, "(g": 3110, ":(": 3111, "Ġwrite": 3112, "Ġmove": 3113, "Ġpat": 3114, "Control": 3115, ".To": 3116, "Ġvi": 3117, "inate": 3118, "'ll": 3119, "aged": 3120, "Null": 3121, "Ġspecial": 3122, "IZE": 3123, "Ġcity": 3124, "ĠEng": 3125, "ixed": 3126, "inary": 3127, "py": 3128, "Ġeff": 3129, "ario": 3130, "Ġtell": 3131, "avor": 3132, "Ġselect": 3133, "level": 3134, "imum": 3135, "oper": 3136, "Builder": 3137, "IP": 3138, "esc": 3139, "Ġfont": 3140, "ĠAm": 3141, "ished": 3142, "ills": 3143, "Inter": 3144, "OW": 3145, "Ġcourse": 3146, "Ġlate": 3147, "iddle": 3148, "Ġamount": 3149, "Ġasync": 3150, "ino": 3151, "cul": 3152, "Ġì": 3153, "andle": 3154, "_user": 3155, "Ġben": 3156, "ĠCal": 3157, "Ġ$_": 3158, "ĠRep": 3159, "Ġenough": 3160, "Token": 3161, ".user": 3162, "(j": 3163, "Sc": 3164, "Width": 3165, "now": 3166, "atform": 3167, "Ġlooking": 3168, "Ġhold": 3169, "Module": 3170, "ITY": 3171, "vo": 3172, "ison": 3173, ".Data": 3174, "yc": 3175, "Ġpot": 3176, "ĠTrump": 3177, "idual": 3178, "ides": 3179, "rt": 3180, "Ġproperty": 3181, "amework": 3182, "go": 3183, "Ġlow": 3184, "Ġpara": 3185, "Ġprice": 3186, "ury": 3187, "Ġtoday": 3188, "roy": 3189, "Ġ'/": 3190, "Ġpolit": 3191, "Ġ''": 3192, "ymb": 3193, "Ph": 3194, "Ġadv": 3195, "Ġattack": 3196, "ĠSte": 3197, "ROM": 3198, "ana": 3199, "Ġmeans": 3200, "Ġstory": 3201, "ids": 3202, "aken": 3203, "Ġmeet": 3204, "Ġmom": 3205, "ĠâĢĺ": 3206, "Ġ?>": 3207, "Ġden": 3208, "obile": 3209, "change": 3210, "ĠĠĠĠĠĠĠĠĠĠĠĠĊ": 3211, "ici": 3212, "na": 3213, "ĠForm": 3214, "Ġsort": 3215, "Select": 3216, "pare": 3217, "Ġthought": 3218, "_con": 3219, "Ġtask": 3220, "ocus": 3221, "ĠDE": 3222, "ĠMin": 3223, "Ġopt": 3224, "umer": 3225, "KE": 3226, "then": 3227, "Ġdet": 3228, "ĠTest": 3229, "ports": 3230, "Ġreview": 3231, "('/": 3232, "move": 3233, "Ġswitch": 3234, "ERT": 3235, "patch": 3236, "annot": 3237, "ãĤ": 3238, "Ġabove": 3239, "itive": 3240, "Ġquestion": 3241, "ĠQu": 3242, "gle": 3243, "Ġword": 3244, "Ġprovide": 3245, "ĠReturn": 3246, "Ġresearch": 3247, "Ã£o": 3248, "ustr": 3249, "Ġpublish": 3250, "chema": 3251, "}}": 3252, "ĠCON": 3253, "-in": 3254, "allback": 3255, "Ġcover": 3256, "\\\\": 3257, "color": 3258, "ĠIS": 3259, "Ġwhether": 3260, "imate": 3261, "isc": 3262, "Bar": 3263, "Ġdiv": 3264, "Be": 3265, "ourn": 3266, "Ġhaving": 3267, "lem": 3268, "player": 3269, "abs": 3270, "amera": 3271, "ney": 3272, "Ġexc": 3273, "gether": 3274, "plied": 3275, "ao": 3276, "[$": 3277, "Ġ++": 3278, "ipe": 3279, "show": 3280, "/d": 3281, "[:": 3282, "agement": 3283, "lev": 3284, "_ID": 3285, "rary": 3286, "ades": 3287, "_se": 3288, "ause": 3289, "Ġemploy": 3290, "Ġfre": 3291, "Ġ'@": 3292, "Ġcomplet": 3293, "Ġlarge": 3294, "ral": 3295, "Ġfac": 3296, "<String": 3297, "Ġcreated": 3298, "uper": 3299, ".state": 3300, "Ġhost": 3301, "eneric": 3302, "/b": 3303, "(!": 3304, "while": 3305, "ias": 3306, "Ġrole": 3307, "Reg": 3308, "ĠColor": 3309, "Start": 3310, "Ġporn": 3311, "top": 3312, "Ġweb": 3313, "Ġdev": 3314, "Ġdeal": 3315, "Integer": 3316, "position": 3317, ".on": 3318, "Ġ(\"": 3319, "Ġproblem": 3320, "sv": 3321, "Ġpress": 3322, "ABLE": 3323, "ATION": 3324, "ĠSee": 3325, "anch": 3326, "Ġthough": 3327, "leep": 3328, "Ġ<!--": 3329, "Ġpoints": 3330, "ĠĠĠĠĠĠĠĠĠĠĠĠĠĠĠĠĠĠĠĠĠĠĠĠĠ": 3331, ".J": 3332, "Ġ::": 3333, "ptr": 3334, "DB": 3335, ".png": 3336, "node": 3337, "soft": 3338, "pond": 3339, "Ġever": 3340, "----------------------------------------------------------------": 3341, "Menu": 3342, "Ġservices": 3343, "pg": 3344, "params": 3345, "Ġactually": 3346, "Ġ\"/": 3347, "Empty": 3348, "Method": 3349, "Ġident": 3350, "unic": 3351, "Ġmillion": 3352, "Ġaff": 3353, "style": 3354, "Ġconc": 3355, "ios": 3356, "ignment": 3357, "ULT": 3358, "Pr": 3359, "Ġunderstand": 3360, "uary": 3361, "Ġhappen": 3362, "Ġserver": 3363, "ĠCo": 3364, "SC": 3365, "Ġles": 3366, "Ġfiles": 3367, "Grid": 3368, "sql": 3369, "Ġoften": 3370, "Ġinfo": 3371, "_tr": 3372, "src": 3373, "ony": 3374, "Ġspace": 3375, "umb": 3376, "Ġpassword": 3377, "Ġstore": 3378, "ĠWhat": 3379, "ged": 3380, "ĠFalse": 3381, "Us": 3382, "swer": 3383, "_index": 3384, "Ġformat": 3385, "most": 3386, "sm": 3387, "New": 3388, "Ġdetails": 3389, "Ġprob": 3390, "ĠAND": 3391, "ilar": 3392, "Ġ${": 3393, "rypt": 3394, ".Collections": 3395, "ĠFree": 3396, "_of": 3397, "(false": 3398, "dated": 3399, "Ġ>>": 3400, "Ġface": 3401, "CTION": 3402, "Ġsave": 3403, "Ġtyp": 3404, "dev": 3405, "(\"#": 3406, "AGE": 3407, "container": 3408, "edit": 3409, "QL": 3410, "Ġitems": 3411, "Ġsocial": 3412, "ien": 3413, "ĠReact": 3414, "Ġmar": 3415, "Ġredu": 3416, "ĠRE": 3417, ".put": 3418, "Ġmajor": 3419, "Cell": 3420, "next": 3421, "Ġexpected": 3422, "Ġyet": 3423, "Ġindiv": 3424, "tributes": 3425, "atis": 3426, "amed": 3427, "Ġfood": 3428, "Source": 3429, "(string": 3430, "ites": 3431, "dr": 3432, "Ġmembers": 3433, "Ġcomb": 3434, "items": 3435, "ĠPer": 3436, "TH": 3437, "=True": 3438, "Ġbar": 3439, "_SE": 3440, "comm": 3441, "(w": 3442, "Ġsend": 3443, "Ġinc": 3444, "unsigned": 3445, "FA": 3446, "Ġparams": 3447, "apping": 3448, "ros": 3449, "ugin": 3450, "fa": 3451, "Ġconnection": 3452, "Ġbecome": 3453, "Mode": 3454, "Ġev": 3455, "Ġdiff": 3456, "ĠUnited": 3457, "Height": 3458, "fully": 3459, "images": 3460, "Ġmakes": 3461, "Ġglobal": 3462, "Ġcontact": 3463, "Ġabs": 3464, "float": 3465, "Ġexcept": 3466, "ĠPol": 3467, "Child": 3468, "typ": 3469, "Ġcertain": 3470, "iÃ³n": 3471, "OUT": 3472, "Ġimpro": 3473, "iles": 3474, "ĠPart": 3475, "values": 3476, "oss": 3477, "/**": 3478, "ilit": 3479, "ĠEvent": 3480, "curity": 3481, "ster": 3482, "Ġcharacter": 3483, "Ġnews": 3484, "Ġ\",": 3485, "Ġdevice": 3486, "cel": 3487, "login": 3488, "heet": 3489, "Default": 3490, "click": 3491, "(value": 3492, "ĠAb": 3493, "Ġprevious": 3494, "ERROR": 3495, "ocal": 3496, "Ġmaterial": 3497, "Ġbelow": 3498, "ĠChrist": 3499, "Ġmedia": 3500, "cover": 3501, "ĠUI": 3502, "Ġfail": 3503, "Ġblack": 3504, "Ġcomponent": 3505, "ĠAmerican": 3506, "Ġadded": 3507, "Ġbuy": 3508, "stit": 3509, "Ġcame": 3510, "Ġdelete": 3511, "property": 3512, "oding": 3513, "Ġcard": 3514, "rops": 3515, "Ġhttps": 3516, "Ġroot": 3517, "Ġhandle": 3518, "CC": 3519, "Back": 3520, "emplate": 3521, "Ġgetting": 3522, "_by": 3523, "mail": 3524, "_sh": 3525, ".assert": 3526, "ĠDec": 3527, "(true": 3528, "Ġcomput": 3529, "Ġclaim": 3530, "ĠSub": 3531, "Ġair": 3532, "ops": 3533, "nav": 3534, "ements": 3535, "(id": 3536, "Ġenter": 3537, "anged": 3538, "End": 3539, "Ġlocation": 3540, "Ġnight": 3541, "Ġdoing": 3542, "ĠRed": 3543, "lin": 3544, "vider": 3545, "Ġpick": 3546, "Ġwatch": 3547, "essages": 3548, "Ġhuman": 3549, "Ġdam": 3550, "pend": 3551, "dir": 3552, "Ġtax": 3553, "Ġgirl": 3554, "reet": 3555, "Ġbox": 3556, "Ġstrong": 3557, "(v": 3558, "rel": 3559, "Ġinterface": 3560, "Ġmsg": 3561, "fect": 3562, "_at": 3563, "Ġhouse": 3564, "Ġtrack": 3565, "je": 3566, "ĠJohn": 3567, "istr": 3568, "(S": 3569, "ube": 3570, "Ġce": 3571, "itted": 3572, "VER": 3573, "*)": 3574, "parent": 3575, "Ġapplication": 3576, "any": 3577, "Ġpack": 3578, "\\u": 3579, "Ġpract": 3580, "Ġsection": 3581, "ctx": 3582, "Ġunsigned": 3583, "ĠOne": 3584, "Ä±": 3585, "iple": 3586, "aid": 3587, "Ñĥ": 3588, "Vector": 3589, "byte": 3590, "Ġwait": 3591, "ĠÃł": 3592, "Ã¥": 3593, "Ġtogether": 3594, "Ġthrows": 3595, "FO": 3596, "'))": 3597, "host": 3598, "ising": 3599, "Ġterms": 3600, "framework": 3601, "-r": 3602, "Ġapply": 3603, "Ġsession": 3604, "Options": 3605, "uggest": 3606, "Ġothers": 3607, "witter": 3608, "Ġfund": 3609, "Init": 3610, "__(": 3611, "ensor": 3612, "GET": 3613, "Ġseveral": 3614, "ii": 3615, "[j": 3616, "IO": 3617, "Ġtemplate": 3618, "Position": 3619, "Ġecon": 3620, "achine": 3621, "Ġil": 3622, ".spring": 3623, "main": 3624, "elt": 3625, "iment": 3626, "Rec": 3627, "mm": 3628, "ĠUniversity": 3629, "ursor": 3630, "ĠĠĠĠĠĠĠĠĠĠĠĠĠĠĠĠĠĠĠĠ": 3631, "GL": 3632, "icture": 3633, "ithub": 3634, "cer": 3635, "cast": 3636, "From": 3637, "ales": 3638, "Ġsubject": 3639, "password": 3640, "ny": 3641, "Ġesc": 3642, ".write": 3643, "ï¼Į": 3644, "What": 3645, ".H": 3646, "Ġhistory": 3647, "ĠFe": 3648, "Ġindividual": 3649, "unit": 3650, "Ġ-->": 3651, "Ġdu": 3652, "IST": 3653, "Ġusers": 3654, "fs": 3655, "false": 3656, "unt": 3657, "Title": 3658, "Ġmot": 3659, "Ġfuture": 3660, "ached": 3661, "Ġstarted": 3662, "Ġmode": 3663, "Ġ'<": 3664, "_array": 3665, "Ġax": 3666, "ires": 3667, "There": 3668, "ught": 3669, "tml": 3670, "posed": 3671, "icult": 3672, "Ġtook": 3673, "Ġgames": 3674, "Ġ}}": 3675, "Ġproducts": 3676, "Is": 3677, "Ġbad": 3678, "ĠDes": 3679, ".path": 3680, "ĠPost": 3681, "avel": 3682, "(:": 3683, "Ġneeds": 3684, "Ġknown": 3685, "Fl": 3686, "Ġexec": 3687, "Ġseen": 3688, "ume": 3689, "Ġborder": 3690, "Ġlive": 3691, "temp": 3692, "Per": 3693, "Ġvariable": 3694, "iet": 3695, "ĠDef": 3696, "Ġge": 3697, "eme": 3698, "_back": 3699, "first": 3700, "Ġprovided": 3701, "Ġfilename": 3702, "Ġhope": 3703, "uly": 3704, "auto": 3705, "find": 3706, "_string": 3707, "btn": 3708, "itude": 3709, "Attribute": 3710, "Ġyoung": 3711, ".txt": 3712, "Ġwebsite": 3713, "ĠProp": 3714, "Ġey": 3715, "ional": 3716, "ARR": 3717, "ictionary": 3718, "urther": 3719, ".</": 3720, "ALL": 3721, "Ġstudy": 3722, "ili": 3723, "Ġnetwork": 3724, "yl": 3725, "istance": 3726, "OK": 3727, "NU": 3728, "rest": 3729, "ĠST": 3730, "icrosoft": 3731, "Ġlimit": 3732, "Ġcut": 3733, "Ġcou": 3734, "ogn": 3735, "Ġsizeof": 3736, "ival": 3737, "Ġwent": 3738, ".z": 3739, "Link": 3740, "Ġfire": 3741, "Ġacross": 3742, "Ġcommunity": 3743, "region": 3744, "NE": 3745, "Ref": 3746, "Ġofficial": 3747, "Ġvisit": 3748, "olve": 3749, "Ġreceived": 3750, "Ġtoken": 3751, "Ġmonths": 3752, "Ġanim": 3753, "Ġparticular": 3754, "styles": 3755, "ico": 3756, "Ġess": 3757, "ball": 3758, "Ġlearn": 3759, "inding": 3760, "Var": 3761, "Ġdecl": 3762, "(err": 3763, "LECT": 3764, "One": 3765, "pha": 3766, "Ġ~": 3767, "fort": 3768, "asure": 3769, "Ġmind": 3770, "ĠEnd": 3771, "Check": 3772, "Ġquick": 3773, "\"),": 3774, "AND": 3775, "utions": 3776, "Base": 3777, "________": 3778, "Ġcomment": 3779, "INE": 3780, "âĢĻve": 3781, "But": 3782, "ĠEl": 3783, "ĠUs": 3784, "Ġadmin": 3785, "mark": 3786, "ĠName": 3787, "ĠType": 3788, "amic": 3789, "pc": 3790, "loor": 3791, "FT": 3792, "Ġopp": 3793, "cket": 3794, ")->": 3795, "tx": 3796, "Ġpur": 3797, "uel": 3798, "ymbol": 3799, "uation": 3800, "anger": 3801, "Ġbackground": 3802, "ecess": 3803, "efined": 3804, "........": 3805, "Ġdescription": 3806, "Ġrepresent": 3807, "pression": 3808, "rowser": 3809, "Ġseries": 3810, "wards": 3811, "($_": 3812, "aise": 3813, "Ġhot": 3814, "acity": 3815, "ries": 3816, "actions": 3817, "Create": 3818, "adio": 3819, "amples": 3820, "Ġoriginal": 3821, "ensive": 3822, "font": 3823, "stream": 3824, ".springframework": 3825, "server": 3826, "Ġbill": 3827, "ACK": 3828, "ilename": 3829, "Ġframe": 3830, "Edit": 3831, "adius": 3832, "Ġdraw": 3833, "anks": 3834, "Ġdeter": 3835, "Ġcomes": 3836, "_int": 3837, "Ġforeach": 3838, "angle": 3839, "Ġelect": 3840, "pected": 3841, "Header": 3842, "istration": 3843, "False": 3844, "ĠGame": 3845, "Ġfilter": 3846, "Activity": 3847, "Ġlarg": 3848, "inition": 3849, "Ġ\"<": 3850, "ised": 3851, "Ġremove": 3852, "ĠTrans": 3853, "met": 3854, "see": 3855, "Format": 3856, "Command": 3857, "ĠEX": 3858, "None": 3859, "Ġfront": 3860, "ASE": 3861, "ĠRec": 3862, "oundation": 3863, "Ġvo": 3864, "=\\\"": 3865, "(*": 3866, "Change": 3867, ".Write": 3868, "group": 3869, "ients": 3870, "uy": 3871, "Ġdig": 3872, "hr": 3873, "(-": 3874, "Ġgen": 3875, "number": 3876, "vec": 3877, "urope": 3878, "entry": 3879, "LL": 3880, "Ġste": 3881, "Valid": 3882, "'],": 3883, "_param": 3884, "Ġselected": 3885, "Ġaccording": 3886, "ĠDis": 3887, "Ġutil": 3888, "Buffer": 3889, "_error": 3890, "Ġassoci": 3891, "_SIZE": 3892, "Ġwor": 3893, "Ġprintf": 3894, "rag": 3895, "Âł": 3896, "DD": 3897, "ĠVal": 3898, "Ġactiv": 3899, "Eng": 3900, "etime": 3901, "Ġvirtual": 3902, "aign": 3903, "aur": 3904, "ĠPres": 3905, "ĠException": 3906, "Ġanything": 3907, "ĠOff": 3908, "Ġhours": 3909, "Ġwar": 3910, "Args": 3911, "aging": 3912, "Ġmodels": 3913, "ĠTime": 3914, "Ob": 3915, "ams": 3916, "joy": 3917, "Ġearly": 3918, ".read": 3919, "Ġcenter": 3920, "ĠInitial": 3921, "Ġlanguage": 3922, "length": 3923, "xy": 3924, "Ġsn": 3925, "Ġinf": 3926, "Post": 3927, "Ġago": 3928, "Ġeasy": 3929, "_code": 3930, "ĠANY": 3931, "_ch": 3932, "Ġdownload": 3933, "(T": 3934, "aved": 3935, "âĢĵ": 3936, "Ġstudents": 3937, "Ġfig": 3938, "light": 3939, "xx": 3940, "Ġbuffer": 3941, "ĠDep": 3942, "ĠMath": 3943, "ITH": 3944, "Ġvari": 3945, "Ġdue": 3946, "Factory": 3947, "Ġpor": 3948, "Ġep": 3949, "otype": 3950, "Ġcannot": 3951, "Ġwhite": 3952, "<int": 3953, "tern": 3954, "Ġregister": 3955, "Ġpred": 3956, "clus": 3957, "_date": 3958, "Ġ/**": 3959, "Ġauth": 3960, "Ġperiod": 3961, "nown": 3962, "Ġvot": 3963, "Ġscreen": 3964, "'d": 3965, "Types": 3966, "ural": 3967, "Ġbenef": 3968, "_y": 3969, "Ġnet": 3970, "ĠStates": 3971, "']['": 3972, "ĠNe": 3973, "ĠNOT": 3974, "Ġneg": 3975, "Ġcommon": 3976, "scope": 3977, "Ġcred": 3978, "ges": 3979, "_TYPE": 3980, "Ġsuggest": 3981, "oom": 3982, "Ġaccept": 3983, "Ġrandom": 3984, "erm": 3985, "ĠVector": 3986, "with": 3987, "TER": 3988, "(str": 3989, "Ġrespons": 3990, "Ġhit": 3991, ".Set": 3992, "grid": 3993, "ria": 3994, "Ġclick": 3995, "undle": 3996, "Case": 3997, "insert": 3998, "Ġ\"\"\"": 3999, "Ġimplement": 4000, "atal": 4001, "tempt": 4002, "template": 4003, "ocr": 4004, "returns": 4005, "Ġplayers": 4006, "users": 4007, "ĠThese": 4008, "Ġamong": 4009, "Ġdeb": 4010, "ha": 4011, ".getElement": 4012, "Ġcirc": 4013, "Ġanswer": 4014, "Ġwalk": 4015, "Ġtreat": 4016, "ĠGe": 4017, "ĠCreate": 4018, "Ġage": 4019, "Ġreq": 4020, "OST": 4021, "angular": 4022, "Ñı": 4023, "Ġfive": 4024, "Ġdistributed": 4025, "Ġfriend": 4026, "TP": 4027, "Ġclean": 4028, "ows": 4029, "dis": 4030, "Ġwords": 4031, ".io": 4032, "zy": 4033, "Ġheader": 4034, "ĠCheck": 4035, "âĢĻm": 4036, "just": 4037, "holder": 4038, "=\"<?": 4039, "ĠCol": 4040, "imest": 4041, "entic": 4042, "Ġtre": 4043, "last": 4044, "la": 4045, "ĠYork": 4046, "Lo": 4047, "Ġdiscuss": 4048, "ĠGod": 4049, "Ġissue": 4050, "rew": 4051, "Window": 4052, "Ġland": 4053, "Ġstream": 4054, "ĠPar": 4055, "Ġquality": 4056, "Par": 4057, "_num": 4058, "Ġsal": 4059, "elves": 4060, "ORD": 4061, "(user": 4062, "Ġworks": 4063, "Ġhalf": 4064, "enses": 4065, "vas": 4066, "Ġpolice": 4067, "(\"/": 4068, "ua": 4069, "Ġsimple": 4070, "Address": 4071, "Ġempty": 4072, "esh": 4073, "Update": 4074, "ĠCreated": 4075, "('.": 4076, "ĠĠĠĠĠĠĠĠĠĠĠĠĠĠĠĠĠĠ": 4077, "Ġagre": 4078, "ĠFROM": 4079, "Ġcook": 4080, "Ġeverything": 4081, "ilities": 4082, ".status": 4083, "Ġrelations": 4084, "Ġnothing": 4085, "Ġrunning": 4086, "RI": 4087, "_a": 4088, "_CON": 4089, "por": 4090, ".sub": 4091, "require": 4092, "ĠCity": 4093, "ĠWest": 4094, "Ġmor": 4095, "store": 4096, "Equals": 4097, "oder": 4098, "Ġna": 4099, "Ġ[[": 4100, "Ġ('": 4101, "ĠDon": 4102, "ERS": 4103, "/p": 4104, ".json": 4105, "abor": 4106, "Ġsomeone": 4107, "_text": 4108, ".css": 4109, "ĠSome": 4110, "ato": 4111, "double": 4112, "Ġshare": 4113, "(void": 4114, "_dir": 4115, "Ġur": 4116, "Stack": 4117, "ĠWorld": 4118, ".X": 4119, "stract": 4120, "How": 4121, "icles": 4122, "Ġentry": 4123, "Ġchanges": 4124, "Ġpersonal": 4125, "(A": 4126, "Ġoffset": 4127, "_ptr": 4128, "Ġpie": 4129, "ĠJan": 4130, "-group": 4131, "module": 4132, "Items": 4133, "ĠHowever": 4134, "verage": 4135, "Ġevents": 4136, ".min": 4137, "Ġinvol": 4138, "za": 4139, "Ġwhole": 4140, "Ġneeded": 4141, "Ġlikely": 4142, "rief": 4143, "ORM": 4144, "version": 4145, "Ġfight": 4146, "Ġein": 4147, "Frame": 4148, "gen": 4149, "ĠOut": 4150, "avigation": 4151, "Length": 4152, "illed": 4153, "quence": 4154, "Ġ!==": 4155, "ĠSoftware": 4156, "Ġwriting": 4157, "Ġrate": 4158, "Panel": 4159, "inner": 4160, "Ġ[\"": 4161, "Ġtw": 4162, "cd": 4163, "_state": 4164, "ĠSm": 4165, "ĠMark": 4166, "prot": 4167, "ĠMr": 4168, "method": 4169, "ustomer": 4170, "Icon": 4171, "Ġcorrect": 4172, "(object": 4173, "ĠMore": 4174, "Ġfall": 4175, "Ġvol": 4176, "Ġdevelopment": 4177, "ently": 4178, "Ġsi": 4179, "medi": 4180, "ving": 4181, "PP": 4182, "aker": 4183, "Ġindu": 4184, "Ġelif": 4185, "Ġpret": 4186, "Ġbelieve": 4187, "ns": 4188, "omet": 4189, "ĠIntern": 4190, "Rect": 4191, "So": 4192, ".error": 4193, "Read": 4194, "Ġfeatures": 4195, "Ġminutes": 4196, "---": 4197, "asing": 4198, "cret": 4199, "Ġcollection": 4200, "'.": 4201, "Ġsimilar": 4202, "Ġtaken": 4203, "(\"%": 4204, "Order": 4205, "-md": 4206, "ĠTH": 4207, "aced": 4208, "Ġisn": 4209, "/j": 4210, "Ġson": 4211, "graph": 4212, "ĠInteger": 4213, "Ġnecess": 4214, "reen": 4215, "Ġum": 4216, "Ġmoment": 4217, "Ġbring": 4218, "Ġindic": 4219, "ysis": 4220, "Level": 4221, "verse": 4222, "urrenc": 4223, "_test": 4224, "Ġentire": 4225, "Down": 4226, "(result": 4227, "ĠRead": 4228, "Ã¨": 4229, "Mod": 4230, "Ġtrying": 4231, "Ġmember": 4232, "ĠCor": 4233, "-control": 4234, "untime": 4235, "ĠSim": 4236, "Dialog": 4237, "plot": 4238, "_on": 4239, "Ġphys": 4240, "}/": 4241, "Ġnamespace": 4242, "acc": 4243, "Player": 4244, "ARE": 4245, "Ġfoot": 4246, "Ġboard": 4247, "part": 4248, "Ġsus": 4249, "wise": 4250, "ĠMc": 4251, "Ġpush": 4252, "ATA": 4253, "Ġplease": 4254, "ried": 4255, "weet": 4256, "bit": 4257, "ided": 4258, "VE": 4259, "ĠSw": 4260, "UB": 4261, "Ġtypes": 4262, "edia": 4263, "Ġclos": 4264, "acebook": 4265, "When": 4266, "Ġedit": 4267, "igger": 4268, "Ġenerg": 4269, "Container": 4270, "Ġphot": 4271, "ĠCount": 4272, "ĠEurope": 4273, ".Is": 4274, "ĠRuss": 4275, "peed": 4276, "ĠStr": 4277, "Ġpy": 4278, "Ġcult": 4279, "Ġdefined": 4280, "ccount": 4281, "Ġobt": 4282, "Ġthread": 4283, "ille": 4284, "Ġinstead": 4285, "strong": 4286, "ĠSec": 4287, "URE": 4288, "Ġidea": 4289, ".se": 4290, "emy": 4291, "selected": 4292, "Connection": 4293, "acing": 4294, "thread": 4295, ".next": 4296, "Ġcoll": 4297, "Ġfilm": 4298, "istic": 4299, "Ġcompet": 4300, "Ġconn": 4301, "though": 4302, "Ġcompan": 4303, "ocket": 4304, "Ġteach": 4305, "=(": 4306, "Ġphone": 4307, "Ġactive": 4308, "delete": 4309, "tries": 4310, "Ġmo": 4311, "Ġdeath": 4312, "ocol": 4313, "Widget": 4314, "Ġarticle": 4315, "rodu": 4316, "andid": 4317, "ĠCr": 4318, "ka": 4319, "():": 4320, "lood": 4321, "Ġalmost": 4322, "Ġsell": 4323, "ervlet": 4324, "rip": 4325, "Unit": 4326, "Ġapplic": 4327, "Ġconnect": 4328, "Ġfeature": 4329, "Ġvia": 4330, "'),": 4331, "Ġlim": 4332, "ĠGu": 4333, "Engine": 4334, "Ġens": 4335, "Ġenvironment": 4336, "block": 4337, "HERE": 4338, "NULL": 4339, "gy": 4340, "tag": 4341, ")).": 4342, "exp": 4343, "Ġcompl": 4344, "Ġinstall": 4345, "Ġcomplete": 4346, "queue": 4347, "atural": 4348, "Ġgeneral": 4349, "thon": 4350, "Ġasked": 4351, "ores": 4352, "(res": 4353, "Ġreserved": 4354, "SP": 4355, "ĠâĢ¦": 4356, "Ġsignific": 4357, "Off": 4358, "ĠĠĠĠĠĠĠĠĠĠĠĠĠĠĠĠĠĠĠĠĠĠĠĠĠĠĠĠĠ": 4359, "ĠAg": 4360, "ĠJust": 4361, "ĠError": 4362, "Ġinfl": 4363, "adata": 4364, "Ġicon": 4365, "asks": 4366, "''": 4367, "?.": 4368, "account": 4369, "Ġ(*": 4370, "rap": 4371, "_var": 4372, "ĠFOR": 4373, "Ġparty": 4374, "ĠYour": 4375, "cat": 4376, "stry": 4377, ".new": 4378, "boot": 4379, "ĠNov": 4380, "Ġvector": 4381, "Ġnormal": 4382, "Ġfurther": 4383, "Repository": 4384, "Ġdatabase": 4385, "attle": 4386, "Ġmusic": 4387, "Ġspeed": 4388, "Ġdoc": 4389, "process": 4390, "IGHT": 4391, ".parse": 4392, "Ġtaking": 4393, "Ġviol": 4394, "ceed": 4395, "ĠAfter": 4396, "Ġforward": 4397, "Ġcrit": 4398, "rot": 4399, "Ġfailed": 4400, "efore": 4401, "Ġconcern": 4402, "oe": 4403, "ba": 4404, "Ġsender": 4405, "Ġterm": 4406, "has": 4407, "=\"#": 4408, "Ġpotential": 4409, "Num": 4410, "Ġpublished": 4411, ".close": 4412, "ĠImage": 4413, "straint": 4414, "UD": 4415, "ĠOb": 4416, "Ġprobably": 4417, "lim": 4418, "olume": 4419, "Ġconsum": 4420, "ague": 4421, "ensions": 4422, "Ġinvestig": 4423, "-year": 4424, "');": 4425, "-sm": 4426, "Ġenjoy": 4427, "orig": 4428, "ering": 4429, "cp": 4430, "leased": 4431, "plements": 4432, "Ġreturns": 4433, "pat": 4434, "BO": 4435, "ĠHouse": 4436, ".Label": 4437, "Ġweight": 4438, "ighb": 4439, "Ġconditions": 4440, "Ġexception": 4441, "description": 4442, "Ġtrad": 4443, "-to": 4444, "Ġ{}": 4445, "Ġmodule": 4446, "END": 4447, ".ap": 4448, "Ġconstructor": 4449, "aves": 4450, "Ġfavor": 4451, "ĠNow": 4452, "ĠMain": 4453, "_k": 4454, "eries": 4455, "âĢĻll": 4456, "transform": 4457, "imestamp": 4458, "Pre": 4459, "Ġmer": 4460, ".res": 4461, "stant": 4462, "Location": 4463, "_NAME": 4464, "Ġloss": 4465, "ĠĊĊ": 4466, "net": 4467, "Ġengine": 4468, "Block": 4469, "Ġissues": 4470, "Ġparse": 4471, "ĠBar": 4472, "Ġstay": 4473, "ĠJSON": 4474, "Ġdom": 4475, "airs": 4476, "wner": 4477, "Ġlower": 4478, "ĠDem": 4479, "ufact": 4480, "Ġps": 4481, "Ġperfect": 4482, "RL": 4483, "Ġeduc": 4484, "ls": 4485, "emory": 4486, "uge": 4487, "Ġexact": 4488, ".key": 4489, "alled": 4490, "ech": 4491, "ief": 4492, "\\/": 4493, "oke": 4494, "Ġformer": 4495, "alloc": 4496, "Ġsix": 4497, "ida": 4498, "Ġmargin": 4499, "Ġheart": 4500, "ald": 4501, "pack": 4502, ".getElementById": 4503, "Ġrather": 4504, "Ġbuilding": 4505, "erman": 4506, "lice": 4507, "Ġquestions": 4508, "izes": 4509, "lege": 4510, "irectory": 4511, "Ġje": 4512, "Ġcas": 4513, "props": 4514, "utf": 4515, "Ġsecurity": 4516, "Ġhowever": 4517, "weight": 4518, "Ġinside": 4519, "Ġpresident": 4520, "Char": 4521, "ĠWITH": 4522, ".map": 4523, "Ġgraph": 4524, "Ġtag": 4525, "_status": 4526, "Ġattempt": 4527, "opp": 4528, "uses": 4529, "Ġround": 4530, ",$": 4531, "Ġfriends": 4532, "Email": 4533, "?>": 4534, "Resource": 4535, "KEY": 4536, "osp": 4537, ".query": 4538, "ĠNorth": 4539, "ables": 4540, "istrib": 4541, "_class": 4542, "ello": 4543, "That": 4544, "Ðº": 4545, "pecially": 4546, "ĠPresident": 4547, "Ġcampaign": 4548, "Ġalt": 4549, "area": 4550, "Ġchall": 4551, "Ġopport": 4552, ".Con": 4553, "Ġenergy": 4554, "like": 4555, ".string": 4556, "ington": 4557, ")*": 4558, "yy": 4559, "Ġprofession": 4560, "irth": 4561, "Ġseg": 4562, "Ġhor": 4563, "iers": 4564, "can": 4565, "Ġbehind": 4566, "Product": 4567, "fg": 4568, "ĠSk": 4569, ".jpg": 4570, "?:": 4571, "Ġcallback": 4572, "ÑĮ": 4573, "long": 4574, "MS": 4575, "ATH": 4576, "Ġraise": 4577, "Ġwanted": 4578, "rown": 4579, "utor": 4580, "lt": 4581, "]=": 4582, "eline": 4583, "MA": 4584, "Ġsepar": 4585, "cs": 4586, "semb": 4587, "Dis": 4588, "bserv": 4589, "ĠWill": 4590, "Ġpolicy": 4591, "Ġthird": 4592, "phone": 4593, "Ġbed": 4594, "/g": 4595, ".__": 4596, "ĠInc": 4597, "izing": 4598, ".remove": 4599, "instance": 4600, ".type": 4601, "Ġserv": 4602, "Each": 4603, "Ġhar": 4604, "ĠMessage": 4605, "(key": 4606, "SELECT": 4607, "Pos": 4608, "Ġrecomm": 4609, "Ġtraining": 4610, "ĠEnt": 4611, "ĠChar": 4612, "icht": 4613, "(file": 4614, "Ġprior": 4615, "Game": 4616, "Ġexit": 4617, "Params": 4618, ".core": 4619, "PC": 4620, "nes": 4621, "anced": 4622, "(request": 4623, "Password": 4624, "Ġmag": 4625, "Ġrelease": 4626, "Ġshall": 4627, "udent": 4628, "ĠSouth": 4629, "ando": 4630, ":'": 4631, "sk": 4632, "anner": 4633, "isset": 4634, "Ġoutside": 4635, "ledge": 4636, "ĠRob": 4637, "Ġimm": 4638, "ĠWeb": 4639, "Des": 4640, "BC": 4641, "ancial": 4642, "Route": 4643, "Dec": 4644, "ferences": 4645, "Ġpurch": 4646, "ĠModel": 4647, "ctor": 4648, "gn": 4649, "_start": 4650, "_un": 4651, ".*": 4652, "ises": 4653, "Ġground": 4654, "Ġunique": 4655, "Ġbeaut": 4656, "{\"": 4657, "Ġpour": 4658, "ĠOct": 4659, "Ġtree": 4660, "sets": 4661, "_res": 4662, "_reg": 4663, "(\"\\": 4664, "Ġbyte": 4665, "Bl": 4666, "Ġdating": 4667, "Ġmatter": 4668, "ĠRem": 4669, "Ġ'../": 4670, "ĠAug": 4671, "ĠLa": 4672, "Ġ$(": 4673, "ournal": 4674, "iam": 4675, "Ġshows": 4676, "write": 4677, "Ġball": 4678, "Ġsimply": 4679, "Ġfast": 4680, "Ġmemory": 4681, "ASS": 4682, "ĠOf": 4683, "oved": 4684, "ante": 4685, "aul": 4686, "istry": 4687, "Ġfit": 4688, "<string": 4689, "Ġpolitical": 4690, "ancel": 4691, "_.": 4692, "card": 4693, ".current": 4694, "och": 4695, "_image": 4696, "\\t": 4697, "(L": 4698, "Ġindustry": 4699, "coming": 4700, "Ġextra": 4701, "Ġreported": 4702, ".start": 4703, "Ġresources": 4704, "Ġimg": 4705, "flow": 4706, "_EX": 4707, "(null": 4708, "ĠPre": 4709, "Ġwrong": 4710, "interface": 4711, "Parameter": 4712, "ners": 4713, "á»": 4714, "ture": 4715, "ersist": 4716, "ountry": 4717, "Ġseems": 4718, "alance": 4719, "dest": 4720, "Ġmaint": 4721, "Ġunit": 4722, "acters": 4723, "ĠTR": 4724, "iful": 4725, "exports": 4726, "project": 4727, "Application": 4728, "legate": 4729, "Ġtakes": 4730, "term": 4731, "Ġetc": 4732, "uster": 4733, "Ġappear": 4734, "address": 4735, "Ġfem": 4736, "hs": 4737, "Ġhom": 4738, ",-": 4739, "Ġdifficult": 4740, "Ġcoming": 4741, "Open": 4742, "Ġsettings": 4743, "ĠWar": 4744, "ĠThen": 4745, "Ġautom": 4746, "ĠFoundation": 4747, "Ġquite": 4748, "Description": 4749, "Ġblog": 4750, "iqu": 4751, "PS": 4752, "_field": 4753, "Json": 4754, "SSION": 4755, "ĠSch": 4756, "ĠLO": 4757, "Ġdescri": 4758, "Ġeveryone": 4759, "Ġpretty": 4760, "Ġlonger": 4761, "Ġmenu": 4762, "Ġcurrently": 4763, "sec": 4764, "Ġrelationship": 4765, "################################": 4766, "ĠMap": 4767, "aset": 4768, "Ġparameters": 4769, "Ġcrush": 4770, "igration": 4771, "Ġcout": 4772, "total": 4773, "Ġnames": 4774, "\");": 4775, "riend": 4776, "ynamic": 4777, "Ġeffort": 4778, "Ġactual": 4779, "Ġfields": 4780, "OUN": 4781, "ters": 4782, "Ġfix": 4783, "_model": 4784, "Ġcases": 4785, "CA": 4786, "My": 4787, "Interface": 4788, "ĠSE": 4789, "]]": 4790, "alle": 4791, "ĠNational": 4792, "ĠArrayList": 4793, "inline": 4794, ".V": 4795, "ara": 4796, "refix": 4797, "asc": 4798, "Reader": 4799, "astic": 4800, "(()": 4801, "Cl": 4802, "Ġperformance": 4803, "aily": 4804, ".toString": 4805, ".net": 4806, "views": 4807, ".end": 4808, "ayers": 4809, "late": 4810, "ĠApr": 4811, "ederal": 4812, "'])": 4813, ".body": 4814, "Ġhigher": 4815, "_fl": 4816, "cr": 4817, "alert": 4818, "_node": 4819, "ĠGoogle": 4820, "Ġitself": 4821, "Auth": 4822, "urrency": 4823, "Ġsignificant": 4824, "append": 4825, "Ġrespect": 4826, "strap": 4827, "Ġuna": 4828, "riteria": 4829, "PORT": 4830, ".apache": 4831, "Output": 4832, "Ġprogress": 4833, "Ġmid": 4834, "ĠMicrosoft": 4835, "Ġresource": 4836, "ablish": 4837, "Ġdim": 4838, ".load": 4839, "Ġdirection": 4840, "Ġadditional": 4841, "ĠĠĠĠĠĠĠĠĠĠĠĠĠĠĠĠĠĠĠĠĠĠĠĠ": 4842, "Ġnumbers": 4843, "Ġcompanies": 4844, ".Th": 4845, "Ġsound": 4846, "username": 4847, "Ġstatement": 4848, "Ġalert": 4849, "Ġcontract": 4850, "home": 4851, "_length": 4852, "ev": 4853, ".Ex": 4854, "ï¼ļ": 4855, "\";": 4856, "ĠHigh": 4857, "ĠPoint": 4858, "oph": 4859, "Ġlines": 4860, "ox": 4861, "application": 4862, "Ġsoon": 4863, "ctions": 4864, "inger": 4865, "Ġjoin": 4866, "ĠPe": 4867, "Ġë": 4868, "Ġlas": 4869, ".E": 4870, "css": 4871, "/or": 4872, "ĠStart": 4873, "ĠTO": 4874, "Ġsubs": 4875, "conn": 4876, "components": 4877, "quare": 4878, "Function": 4879, "endar": 4880, ".index": 4881, "Ġfill": 4882, "ÄĻ": 4883, "Ġchoose": 4884, "how": 4885, "ĠAmerica": 4886, "assets": 4887, "------------": 4888, "ĠValue": 4889, "Ġoffice": 4890, "Ġveh": 4891, "Ġtransform": 4892, "ĠArt": 4893, "Ġinde": 4894, "Ġfn": 4895, "Ġimplements": 4896, "ango": 4897, "plete": 4898, "+\"": 4899, "tmp": 4900, "amily": 4901, "Ġhash": 4902, "missions": 4903, "EST": 4904, "gt": 4905, "Provider": 4906, "ĠĠĠĠĠĠĠĠĠĠĠĠĠĠĠĠĠĠĠĠĠĠ": 4907, "Ġflag": 4908, "Ġparticip": 4909, "den": 4910, "ĠReturns": 4911, "Ġnote": 4912, "Ã¼r": 4913, "pm": 4914, "ideos": 4915, "Ġspecified": 4916, "ĠEN": 4917, "ester": 4918, "olid": 4919, "Ġupon": 4920, "(std": 4921, "Ġ'\\": 4922, "uz": 4923, "Ġvert": 4924, "Ġvict": 4925, "Ġ\"$": 4926, ".k": 4927, "Ġgroups": 4928, "github": 4929, "lang": 4930, "Ġmut": 4931, "TO": 4932, "Ġve": 4933, "ĠPlease": 4934, "access": 4935, "Ġ{\"": 4936, "rea": 4937, "Ġrisk": 4938, "icker": 4939, "oggle": 4940, "ANG": 4941, ".send": 4942, "Ġwoman": 4943, "Ġgets": 4944, "Ġign": 4945, "ĠId": 4946, "_log": 4947, "ONE": 4948, "Ġevid": 4949, "ĠHar": 4950, "_sub": 4951, "Ġincluded": 4952, "ĠAp": 4953, "igr": 4954, "Ġsem": 4955, "ĠBlack": 4956, "doc": 4957, "_table": 4958, "ĠĠĠĠĠĠĠĠĠĠĠĠĠĠĠĠĠĠĠĠĠĠĠĠĠĠĠĠĠĠĠĠĠĠĠĠĠĠĠĠĠĠĠĠĠĠĠĠĠĠĠĠĠĠĠĠĠĠĠĠĠĠĠĠ": 4959, "-up": 4960, "Ġcause": 4961, "Ġ..": 4962, "Ġvan": 4963, "_dict": 4964, "Ġfocus": 4965, "IND": 4966, "CESS": 4967, "Ġmultiple": 4968, "ido": 4969, "Ġregard": 4970, "-M": 4971, "andler": 4972, "ourse": 4973, "Ġdeg": 4974, ".U": 4975, "Ġaddition": 4976, "Ġvarious": 4977, "Ġreceive": 4978, "ÐµÐ½": 4979, "ĠHT": 4980, "Obj": 4981, "DF": 4982, "Ġincrease": 4983, "ĠOpen": 4984, "];": 4985, "Ġcommit": 4986, "ategories": 4987, "atory": 4988, "ship": 4989, "ĠMich": 4990, "Ġhtml": 4991, "romise": 4992, "Ġleave": 4993, "Ġstrateg": 4994, "aven": 4995, "ĠConsole": 4996, "known": 4997, "-n": 4998, "_LE": 4999, "Ġbre": 5000, "Session": 5001, "iance": 5002, "Ġalign": 5003, "_result": 5004, "ĠWHERE": 5005, ".split": 5006, "Ġreading": 5007, "FAULT": 5008, "Ġclo": 5009, "Ġnotice": 5010, "_pr": 5011, "arter": 5012, "Ġlock": 5013, "Ġstandard": 5014, "etic": 5015, "ellow": 5016, "Ġpadding": 5017, "ĠHis": 5018, "Ġstates": 5019, "_cast": 5020, "(P": 5021, "aa": 5022, "Ġinternal": 5023, "ean": 5024, "ĠPRO": 5025, "ĠKey": 5026, "Ġespecially": 5027, "ming": 5028, "Ġcross": 5029, "Ġnational": 5030, "_object": 5031, "filter": 5032, "Ġscript": 5033, ".update": 5034, "_i": 5035, "ĠAssert": 5036, "/core": 5037, "Ġproblems": 5038, "istor": 5039, "Ġ.=": 5040, "Ġarch": 5041, "Ġwritten": 5042, "Ġmilit": 5043, "MENT": 5044, ".ch": 5045, "cape": 5046, "ĠMus": 5047, "_config": 5048, "ĠAPI": 5049, "foot": 5050, "Ġimages": 5051, "endl": 5052, ".In": 5053, "First": 5054, "Ġplatform": 5055, "Option": 5056, "ste": 5057, "Ġforce": 5058, ".cont": 5059, "ĠDav": 5060, "(B": 5061, "RT": 5062, "ĠBase": 5063, "]['": 5064, "Ġannounc": 5065, "console": 5066, "ĠPy": 5067, "ds": 5068, ".as": 5069, "Ġprevent": 5070, "apan": 5071, "Ġ{'": 5072, "}</": 5073, "ĠService": 5074, "ĠSen": 5075, "ador": 5076, "profile": 5077, "Top": 5078, "Ġiter": 5079, "po": 5080, "IES": 5081, "JSON": 5082, "IE": 5083, "iant": 5084, "ãĢģ": 5085, "_j": 5086, "ĠSept": 5087, "_map": 5088, "bum": 5089, "(context": 5090, "ĠHome": 5091, "ians": 5092, "GB": 5093, "Ġliving": 5094, "Ġpattern": 5095, "(input": 5096, "icient": 5097, "Core": 5098, "Ġentity": 5099, "Ġinteg": 5100, "Changed": 5101, "Ġuseful": 5102, ".info": 5103, "Ġtool": 5104, "(item": 5105, "Ġok": 5106, "Ġfeed": 5107, "IX": 5108, "Ã©s": 5109, "ĠNews": 5110, "remove": 5111, "erry": 5112, "ipment": 5113, "ares": 5114, "Do": 5115, "Current": 5116, ".content": 5117, "ustral": 5118, "})": 5119, "Ġpopular": 5120, "Ġstre": 5121, "Ġmethods": 5122, "Left": 5123, "cal": 5124, "bsp": 5125, "Ġdir": 5126, "Ġallowed": 5127, "Ġimpact": 5128, ".config": 5129, "Ġelements": 5130, "Ġprote": 5131, "Ġtrain": 5132, ".tr": 5133, "rs": 5134, "ĠRepublic": 5135, "ĠTask": 5136, "aries": 5137, "(D": 5138, "(get": 5139, "Ġrelated": 5140, "Ġvers": 5141, "Ġsil": 5142, "Ġcmd": 5143, "Ġtechnology": 5144, ".width": 5145, "Float": 5146, "ĠUse": 5147, "Body": 5148, "should": 5149, ".join": 5150, "Font": 5151, "llum": 5152, "ycle": 5153, "ĠBrit": 5154, "Ġmit": 5155, "Ġscale": 5156, "Ġ(_": 5157, "ernel": 5158, "Ġscore": 5159, "/v": 5160, "Ġstudent": 5161, "UC": 5162, ".show": 5163, "Ġaverage": 5164, "Enabled": 5165, "(ex": 5166, "common": 5167, "imation": 5168, "chie": 5169, "river": 5170, "ĠMarch": 5171, "category": 5172, "fin": 5173, "Ġcourt": 5174, "Ð²": 5175, "Server": 5176, "Ġcontainer": 5177, "-st": 5178, "_for": 5179, "Ġparts": 5180, "Ġdecision": 5181, "obs": 5182, "oub": 5183, "mitted": 5184, "Ġsaw": 5185, "Ġapproach": 5186, "ICE": 5187, "Ġsaying": 5188, "Ġanyone": 5189, "meta": 5190, "SD": 5191, "Ġsong": 5192, "display": 5193, "Oper": 5194, "outes": 5195, "Ġchannel": 5196, "Ġchanged": 5197, "Ãª": 5198, "Ġfinally": 5199, "_number": 5200, "Please": 5201, "à¤": 5202, "oring": 5203, "-re": 5204, "Ġkill": 5205, "Ġdrug": 5206, "window": 5207, "Ġconvert": 5208, "Ġways": 5209, "Helper": 5210, "ĠFirst": 5211, "(__": 5212, "urity": 5213, "ĠWindows": 5214, "ees": 5215, "Ġmat": 5216, "rapper": 5217, "Ġplus": 5218, "anges": 5219, "\"].": 5220, "azon": 5221, "/t": 5222, "lat": 5223, "aste": 5224, "Ġprofile": 5225, "Ġready": 5226, "rote": 5227, "Ġsense": 5228, "Gener": 5229, "ĠConfig": 5230, "omy": 5231, "ĠJune": 5232, "Ġlatest": 5233, "Ġsaf": 5234, "Ġregion": 5235, "Ġdeep": 5236, "witch": 5237, "ĠPark": 5238, "}`": 5239, "ĠFrom": 5240, "II": 5241, "Ġcv": 5242, "Ġreach": 5243, "Ġcounter": 5244, "ĠWork": 5245, "ĠURL": 5246, "ĠUpdate": 5247, "Ġimmedi": 5248, "close": 5249, "ados": 5250, "ferred": 5251, "Ġweeks": 5252, "urg": 5253, "Ġdamage": 5254, "Ġlost": 5255, "ani": 5256, "_lo": 5257, "Ġhimself": 5258, "Ġdog": 5259, "ï¿": 5260, "pir": 5261, "tt": 5262, "Ġpaper": 5263, "Ġthems": 5264, "second": 5265, "Ġstaff": 5266, "ĠInput": 5267, "ĠFacebook": 5268, "Ġalloc": 5269, "Ġsched": 5270, "ACE": 5271, "Ġthemselves": 5272, "ĠComponent": 5273, "Ġdriver": 5274, "ja": 5275, "(path": 5276, "Ġcategory": 5277, "alls": 5278, "pu": 5279, "ĠAction": 5280, "ĠGL": 5281, "istics": 5282, "Ġoil": 5283, "Ġstock": 5284, ">'": 5285, "Ġdead": 5286, "VAL": 5287, "QUE": 5288, "Ġcharg": 5289, "Return": 5290, "Ġful": 5291, "dom": 5292, "Ġrules": 5293, "Ġmodify": 5294, "Ġeval": 5295, "ham": 5296, "atement": 5297, "ula": 5298, "=False": 5299, "RA": 5300, "Ġcontains": 5301, "Ġstack": 5302, "mar": 5303, "Ġundefined": 5304, "Ass": 5305, "ĠChina": 5306, "vey": 5307, "Ġplaying": 5308, ")/": 5309, "actor": 5310, "Ġbottom": 5311, "lier": 5312, "ĠNumber": 5313, "Ġcouple": 5314, "DC": 5315, "ĠSO": 5316, "gor": 5317, "success": 5318, "command": 5319, "Filter": 5320, "ĠOur": 5321, "_item": 5322, "Ġctx": 5323, "Ġroad": 5324, "Version": 5325, "case": 5326, "urt": 5327, "avior": 5328, "ych": 5329, "sembly": 5330, "ĠProduct": 5331, "Ġheld": 5332, "afe": 5333, "Ġincludes": 5334, "Ġavoid": 5335, "ĠFin": 5336, "ĠMod": 5337, "Ġtab": 5338, "ano": 5339, "Ã±": 5340, "ipping": 5341, "-e": 5342, "Ġinsert": 5343, "target": 5344, "chan": 5345, ".Model": 5346, "IME": 5347, "Ġmachine": 5348, "avy": 5349, "ĠNO": 5350, "ĠInter": 5351, "Ġoperation": 5352, "modal": 5353, "Tag": 5354, "]:": 5355, "Ġproduction": 5356, "Ġareas": 5357, "Ġren": 5358, "_from": 5359, "nbsp": 5360, "Ġoperator": 5361, "men": 5362, "apped": 5363, "_per": 5364, "zen": 5365, ".save": 5366, "Ġtor": 5367, "(response": 5368, "Ġcandid": 5369, "Ġconv": 5370, "ailed": 5371, "ĠLib": 5372, "comp": 5373, "ura": 5374, "ï¿½": 5375, "ĠHere": 5376, "Ġargument": 5377, "hood": 5378, "Ġestablish": 5379, "ography": 5380, "ĠonClick": 5381, "ambda": 5382, "Ġsch": 5383, "Ġmovie": 5384, "Ġsec": 5385, "Ġactivity": 5386, "Ø§": 5387, "Ġsql": 5388, "_all": 5389, "incip": 5390, "Ġprovides": 5391, "Ġsys": 5392, "acket": 5393, "Ġwasn": 5394, "Ġuses": 5395, "ĠFunction": 5396, ".google": 5397, "ĠResult": 5398, "Visible": 5399, "elcome": 5400, "ĠSy": 5401, "ĠCent": 5402, "ALSE": 5403, "aciÃ³n": 5404, "EXT": 5405, "Ġlicense": 5406, "ĠLong": 5407, "Ġaccom": 5408, "Ġability": 5409, ".height": 5410, "Active": 5411, "ological": 5412, "oly": 5413, ")),": 5414, "Ġparameter": 5415, "prite": 5416, ".service": 5417, "ĠGroup": 5418, "_query": 5419, "ĠItem": 5420, "ining": 5421, "Ġjud": 5422, "ims": 5423, "fix": 5424, "inder": 5425, "agram": 5426, "Ġfunctions": 5427, "Ġexperi": 5428, "ĠEm": 5429, "Ġrot": 5430, "Ġpen": 5431, ".btn": 5432, "ĠAS": 5433, "Ġchoice": 5434, "ĠPage": 5435, "QU": 5436, "antity": 5437, "ÂŃ": 5438, "words": 5439, "Ġreadonly": 5440, "Ġflex": 5441, "protected": 5442, "ĠAny": 5443, "Ġcharacters": 5444, "enced": 5445, "ĠJuly": 5446, "iler": 5447, "Card": 5448, "urance": 5449, "Ġrev": 5450, ".event": 5451, "aly": 5452, "Ġwonder": 5453, "ĠPort": 5454, "Ġlegal": 5455, "role": 5456, "Ġten": 5457, "Ġgoes": 5458, "MP": 5459, "white": 5460, "Ġreference": 5461, "Ġmis": 5462, "ĠProject": 5463, "icks": 5464, ">&": 5465, "CON": 5466, "Ġrepl": 5467, "Ġregular": 5468, "Storage": 5469, "ramework": 5470, "Ġgoal": 5471, "Ġtouch": 5472, "Ġbuilt": 5473, "des": 5474, "Part": 5475, "(re": 5476, "Ġworth": 5477, "hib": 5478, "game": 5479, "ĠÐ²": 5480, "ĠWhite": 5481, "(type": 5482, "(`": 5483, "Ġnatural": 5484, "Ġinj": 5485, "Ġcalcul": 5486, "ĠApril": 5487, ".List": 5488, "Ġassociated": 5489, "~~": 5490, "=[": 5491, "Ġstorage": 5492, "Ġbytes": 5493, "Ġtravel": 5494, "Ġsou": 5495, "Ġpassed": 5496, "!=": 5497, "ascript": 5498, ".open": 5499, "Ġgrid": 5500, "Ġbus": 5501, "Ġrecogn": 5502, "Ab": 5503, "Ġhon": 5504, "ĠCenter": 5505, "Ġprec": 5506, "build": 5507, "HTML": 5508, "ĠSan": 5509, "Ġcountries": 5510, "aled": 5511, "token": 5512, "kt": 5513, "Ġqual": 5514, "Last": 5515, "adow": 5516, "Ġmanufact": 5517, "idad": 5518, "jango": 5519, "Next": 5520, "xf": 5521, ".a": 5522, "ĠPM": 5523, "erve": 5524, "iting": 5525, "_th": 5526, "ci": 5527, "=None": 5528, "gs": 5529, "Ġlogin": 5530, "atives": 5531, "Äħ": 5532, "Ġill": 5533, "IA": 5534, "children": 5535, "DO": 5536, "Ġlevels": 5537, "Ġ{{": 5538, "Ġlooks": 5539, "Ġ\"#": 5540, "Ġnecessary": 5541, "ĠĠĠĊ": 5542, "cell": 5543, "Entry": 5544, "Ġ'#": 5545, "Ġextrem": 5546, "Selector": 5547, "Ġplaceholder": 5548, "Load": 5549, "Ġreleased": 5550, "ORE": 5551, "ĠTV": 5552, "SET": 5553, "inq": 5554, "Press": 5555, "ĠDepartment": 5556, "Ġproperties": 5557, "Ġrespond": 5558, "Search": 5559, "ael": 5560, "Ġrequ": 5561, "ĠBook": 5562, "(st": 5563, "Ġfinancial": 5564, "icket": 5565, "_input": 5566, "Ġthreat": 5567, "(in": 5568, "ìĿ": 5569, "Ã§Ã£o": 5570, "Ġevidence": 5571, "));": 5572, "ĠBro": 5573, "Ġou": 5574, "buf": 5575, "Script": 5576, "dat": 5577, "Ġrule": 5578, "=\"/": 5579, "Serial": 5580, "Ġstarting": 5581, "[index": 5582, "ae": 5583, "Ġcontrib": 5584, "session": 5585, "_new": 5586, "utable": 5587, "ober": 5588, "Ġlogger": 5589, "Ġrecently": 5590, "Ġreturned": 5591, "itions": 5592, "Ġseek": 5593, "Ġcommunic": 5594, "Ġ\".": 5595, "Ġusername": 5596, "ECT": 5597, "DS": 5598, "Ġotherwise": 5599, "ĠGerman": 5600, "Adapter": 5601, "ixel": 5602, "Ġsystems": 5603, "Ġdrop": 5604, "Ġstructure": 5605, "Ġ$(\"#": 5606, "encies": 5607, "anning": 5608, "ĠLink": 5609, "ĠResponse": 5610, "Ġstri": 5611, "ĠDB": 5612, "android": 5613, "submit": 5614, "otion": 5615, "(@": 5616, ".test": 5617, "Ġdirectly": 5618, "Ġ\"%": 5619, "ris": 5620, "elta": 5621, "AIL": 5622, "mine": 5623, "ĠĠĠĠĠĠĠĠĠĠĠĠĠĠĠĠĠĠĠĠĠĠĠĠĠĠ": 5624, "(k": 5625, "bon": 5626, "asic": 5627, "pite": 5628, "___": 5629, "Max": 5630, "Ġerrors": 5631, "ĠWhile": 5632, "Ġarguments": 5633, "Ġensure": 5634, "Right": 5635, "-based": 5636, "Web": 5637, "Ġ-=": 5638, "Ġintrodu": 5639, "ĠInst": 5640, "ĠWash": 5641, "ordin": 5642, "join": 5643, "Database": 5644, "Ġgrad": 5645, "Ġusually": 5646, "ITE": 5647, "Props": 5648, "ĠGo": 5649, "REF": 5650, "Ġip": 5651, "ĠAustral": 5652, "Ġist": 5653, "Ġserious": 5654, "Ġcustomer": 5655, "odo": 5656, "cor": 5657, "Ġdoor": 5658, "Ġplant": 5659, "Ġbegan": 5660, "Ġdistance": 5661, "()).": 5662, "Ġchance": 5663, "Ġord": 5664, "came": 5665, "Ġprotect": 5666, "ĠNode": 5667, "ening": 5668, "Ñĩ": 5669, "Ġroute": 5670, "ĠSchool": 5671, "hi": 5672, "Ġneighb": 5673, "After": 5674, "licit": 5675, "Ġcontr": 5676, "Ġprimary": 5677, "AA": 5678, ".WriteLine": 5679, "utils": 5680, "Ġbi": 5681, "Red": 5682, ".Linq": 5683, ".object": 5684, "Ġleaders": 5685, "unities": 5686, "Ġgun": 5687, "onth": 5688, "ĠDev": 5689, "FILE": 5690, "Ġcomments": 5691, "_len": 5692, "arrow": 5693, "amount": 5694, "Range": 5695, "sert": 5696, "Ġupdated": 5697, "ĠMo": 5698, "Ġinform": 5699, "ociety": 5700, "ala": 5701, "Access": 5702, "Ġhab": 5703, "Ġcreat": 5704, "_arg": 5705, "ĠJanuary": 5706, "ĠDay": 5707, "uple": 5708, "document": 5709, "gorith": 5710, "menu": 5711, "ĠOver": 5712, "bb": 5713, ".title": 5714, "_out": 5715, "Ġled": 5716, "uri": 5717, "Ġ?></": 5718, "gl": 5719, "Ġbank": 5720, "ayment": 5721, "MD": 5722, "Ġsample": 5723, "Ġhands": 5724, "ĠVersion": 5725, "Ġoffers": 5726, "Ġshape": 5727, "Ġsleep": 5728, "_point": 5729, "Settings": 5730, "Ġachie": 5731, "Ġsold": 5732, "ota": 5733, ".bind": 5734, "Am": 5735, "Ġsafe": 5736, "Store": 5737, "Ġshared": 5738, "Ġpriv": 5739, "_VAL": 5740, "Ġsens": 5741, "){": 5742, "Ġremember": 5743, "shared": 5744, "element": 5745, "Ġshoot": 5746, "Vert": 5747, "cout": 5748, "Ġenv": 5749, "_label": 5750, "run": 5751, "Ġscene": 5752, "(array": 5753, "device": 5754, "_title": 5755, "agon": 5756, "aby": 5757, "Ġbecame": 5758, "boolean": 5759, "Ġpark": 5760, "ĠCode": 5761, "upload": 5762, "riday": 5763, "ĠSeptember": 5764, "Fe": 5765, "Ġsen": 5766, "cing": 5767, "FL": 5768, "Col": 5769, "uts": 5770, "_page": 5771, "inn": 5772, "Ġimplied": 5773, "aling": 5774, "Ġyourself": 5775, ".Count": 5776, "conf": 5777, "Ġaud": 5778, "_init": 5779, ".)": 5780, "Ġwrote": 5781, "NG": 5782, ".Error": 5783, ".for": 5784, "Ġequal": 5785, "ĠRequest": 5786, "Ġserial": 5787, "Ġallows": 5788, "XX": 5789, "Ġmiddle": 5790, "chor": 5791, "Ã¸": 5792, "erval": 5793, ".Column": 5794, "reading": 5795, "Ġescort": 5796, "ĠAugust": 5797, "Ġquickly": 5798, "Ġweap": 5799, "ĠCG": 5800, "ropri": 5801, "ho": 5802, "Ġcop": 5803, "ĠBig": 5804, "Ġvs": 5805, "Ġfrequ": 5806, ".Value": 5807, "Ġactions": 5808, "Ġproper": 5809, "Ġinn": 5810, "Ġobjects": 5811, "Ġmatrix": 5812, "avascript": 5813, "Ġones": 5814, ".group": 5815, "Ġgreen": 5816, "Ġpaint": 5817, "ools": 5818, "ycl": 5819, "encode": 5820, "olt": 5821, "comment": 5822, "Dir": 5823, "Ġune": 5824, "izont": 5825, ".position": 5826, "Ġdesigned": 5827, "_val": 5828, "avi": 5829, "iring": 5830, "tab": 5831, "Ġlayer": 5832, "Ġviews": 5833, "Ġreve": 5834, "rael": 5835, "ĠON": 5836, "rics": 5837, "np": 5838, "Ġcore": 5839, "Main": 5840, "Ġexpert": 5841, "_en": 5842, "Ġ/>": 5843, "utter": 5844, "IAL": 5845, "ails": 5846, "ĠKing": 5847, "ĠMet": 5848, "_end": 5849, "ora": 5850, "Ġir": 5851, "Min": 5852, "Ġsurpr": 5853, "Ġrepe": 5854, "Ġdirectory": 5855, "PUT": 5856, "-S": 5857, "Ġelection": 5858, "haps": 5859, ".pre": 5860, "cm": 5861, "Values": 5862, "column": 5863, "ivil": 5864, "Login": 5865, "inue": 5866, "Ġbeautiful": 5867, "Ġsecret": 5868, "(event": 5869, "Ġchat": 5870, "ums": 5871, "Ġorigin": 5872, "Ġeffects": 5873, "Ġmanagement": 5874, "illa": 5875, "tk": 5876, "Ġsetting": 5877, "ĠCour": 5878, "Ġmassage": 5879, "Ġhappy": 5880, "Ġfinish": 5881, "Ġcamera": 5882, "ĠVer": 5883, "ĠDemocr": 5884, "ĠHer": 5885, "(Q": 5886, "cons": 5887, "ita": 5888, "Ġ'.": 5889, "{}": 5890, "Ġstuff": 5891, "ĠAR": 5892, "Task": 5893, "hidden": 5894, "eros": 5895, "IGN": 5896, "atio": 5897, "ĠHealth": 5898, "olute": 5899, "Enter": 5900, "ĠTwitter": 5901, "ĠCounty": 5902, "scribe": 5903, "Ġhy": 5904, "fit": 5905, "Ġmilitary": 5906, "Ġsale": 5907, "required": 5908, "non": 5909, "hold": 5910, "rim": 5911, "-old": 5912, "ĠDown": 5913, "Ġmention": 5914, "contact": 5915, "_group": 5916, "oday": 5917, "Ġtown": 5918, "Ġsolution": 5919, "uate": 5920, "elling": 5921, "otes": 5922, "ental": 5923, "omen": 5924, "ospital": 5925, "ĠSup": 5926, "_EN": 5927, "Ġslow": 5928, "SESSION": 5929, "Ġblue": 5930, "ago": 5931, "Ġlives": 5932, "Ġ^": 5933, ".un": 5934, "inst": 5935, "enge": 5936, "Ġcustomers": 5937, "Ġcast": 5938, "udget": 5939, "ï¼ģ": 5940, "icens": 5941, "Ġdetermin": 5942, "Selected": 5943, "_pl": 5944, "ueue": 5945, "Ġdark": 5946, "si": 5947, "thern": 5948, "ĠJapan": 5949, "/w": 5950, "PU": 5951, "ĠEast": 5952, "ovie": 5953, "Ġpackage": 5954, "Ġnor": 5955, "Ġapi": 5956, "bot": 5957, "_post": 5958, "ulate": 5959, "Ġclub": 5960, "Ġloop": 5961, "PIO": 5962, "ione": 5963, "shot": 5964, "Initial": 5965, "Ġplayed": 5966, "register": 5967, "rought": 5968, "_max": 5969, "acement": 5970, "match": 5971, "raphics": 5972, "AST": 5973, "Ġexisting": 5974, "Ġcomplex": 5975, "DA": 5976, ".Ch": 5977, "mo": 5978, "ito": 5979, "Ġanalysis": 5980, "Ġdeliver": 5981, "ĠĠĠĠĠĠĠĠĠĠĠĠĠĠĠĠĊ": 5982, "idx": 5983, "Ãł": 5984, "ongo": 5985, "ĠEnglish": 5986, "<!--": 5987, "Ġcomputer": 5988, "ENSE": 5989, "Ġpas": 5990, "Ġrais": 5991, "Hash": 5992, "Ġmobile": 5993, "Ġowner": 5994, "FIG": 5995, "thes": 5996, "Ġattr": 5997, "wd": 5998, ".time": 5999, "awn": 6000, "Ġtreatment": 6001, "ĠAc": 6002, "impl": 6003, "more": 6004, "pass": 6005, "Ġha": 6006, ".from": 6007, "Ġleading": 6008, "FFFF": 6009, "(error": 6010, "atar": 6011, "aders": 6012, "dates": 6013, "Ġzu": 6014, "Ġflow": 6015, "Target": 6016, "Ġinvolved": 6017, "Ġio": 6018, "parse": 6019, "$_": 6020, "hest": 6021, ".int": 6022, "-item": 6023, "asy": 6024, "Sp": 6025, "Ġshift": 6026, "NT": 6027, "Ġtf": 6028, ".web": 6029, "CS": 6030, "Ġ})": 6031, "Ġeyes": 6032, "_z": 6033, "iforn": 6034, "Ġnice": 6035, "Ġfloor": 6036, "Ġredirect": 6037, "ĠUK": 6038, "(['": 6039, "Ġwish": 6040, "Ġcapt": 6041, "legal": 6042, "ĠIO": 6043, "Ġstage": 6044, ".String": 6045, "ĠAfr": 6046, "igen": 6047, "ĠSH": 6048, "Delete": 6049, "ells": 6050, "Ġsolid": 6051, "Ġmeeting": 6052, "Ġworked": 6053, "Ġeditor": 6054, "iny": 6055, "Ð¼": 6056, "_read": 6057, ".Id": 6058, "eff": 6059, "Offset": 6060, "cha": 6061, "USER": 6062, "ipped": 6063, "Ġdict": 6064, "ĠRun": 6065, "Ġang": 6066, "xml": 6067, "imple": 6068, "Ġmedical": 6069, "_token": 6070, "connect": 6071, "Ġhour": 6072, "Ġcontroller": 6073, "_message": 6074, "UID": 6075, "Gr": 6076, "anded": 6077, "Ġbooks": 6078, "Ġspeak": 6079, "aming": 6080, "Ġmount": 6081, "Record": 6082, "ondon": 6083, "Ġfelt": 6084, "idge": 6085, "_pos": 6086, "PR": 6087, "Ġmodern": 6088, "Collection": 6089, "_msg": 6090, "CD": 6091, "ĠLo": 6092, "Ġseconds": 6093, "ibly": 6094, "Ġinternational": 6095, "ooth": 6096, "Writer": 6097, "iate": 6098, "Ġcele": 6099, "ĠBit": 6100, "ivo": 6101, "ivery": 6102, "rd": 6103, "HECK": 6104, "Ġcache": 6105, ".count": 6106, "Ġroll": 6107, ".Read": 6108, "RED": 6109, "Ġsetup": 6110, "izontal": 6111, "models": 6112, "argv": 6113, "Ġconsidered": 6114, "settings": 6115, "ĠRel": 6116, "Ġgrowth": 6117, "Ġmix": 6118, "ĠWashington": 6119, "Ġplt": 6120, "ĠIM": 6121, "Ġturned": 6122, "ĠDateTime": 6123, "ĠWed": 6124, "(url": 6125, "Ġ\"-": 6126, "Ġletter": 6127, "Async": 6128, "ĠĠĠĠĠĠĠĠĠĠĠĠĠĠĠĠĠĠĠĠĠĠĠĠĠĠĠĠ": 6129, "ĠOctober": 6130, "_line": 6131, "Ġattention": 6132, "Ġcollect": 6133, "ĠHash": 6134, "Ġimag": 6135, "Tree": 6136, "Ġsituation": 6137, "ette": 6138, "_no": 6139, "IVE": 6140, "Ġvon": 6141, ".target": 6142, "Ġknowledge": 6143, "Ġdrive": 6144, ".post": 6145, "Ġblood": 6146, "Ġcit": 6147, "primary": 6148, "Ġconfiguration": 6149, "tee": 6150, "Ġphoto": 6151, "isode": 6152, "Trace": 6153, "Ġgave": 6154, "Ġshot": 6155, "ĠAir": 6156, "Ġmother": 6157, "price": 6158, "Ġmorning": 6159, "-x": 6160, "Ġtrade": 6161, "Ġdesc": 6162, "Ġparents": 6163, "Api": 6164, "ted": 6165, "wer": 6166, "Ġsy": 6167, "ĠKe": 6168, "Parser": 6169, "ancy": 6170, "Ġpiece": 6171, "ifornia": 6172, "toString": 6173, "ran": 6174, "iding": 6175, "PTION": 6176, "comes": 6177, ".client": 6178, "El": 6179, "Long": 6180, "Ġprofessional": 6181, "rupt": 6182, "va": 6183, "Ġcompletely": 6184, "Ġpractice": 6185, "Ġselection": 6186, "Rem": 6187, "ini": 6188, "Ġcam": 6189, "REE": 6190, "Ġsites": 6191, "pa": 6192, "ÑģÑĤ": 6193, "arrant": 6194, "*(": 6195, "_KEY": 6196, "ĠButton": 6197, "ĠFriday": 6198, "sequ": 6199, "Ġreader": 6200, "Ġmessages": 6201, "Ġbuf": 6202, "Ke": 6203, "Ġnov": 6204, "HP": 6205, "Msg": 6206, "align": 6207, "arily": 6208, "Ġ',": 6209, "_with": 6210, "Ġdas": 6211, "Ġheard": 6212, "atomic": 6213, "rial": 6214, ")[": 6215, "Ġdise": 6216, "Ġgold": 6217, "Ġfair": 6218, "Ġsales": 6219, ".Button": 6220, "strict": 6221, "save": 6222, "Ġmeasure": 6223, "Ġ\"+": 6224, "ecause": 6225, "ĠTable": 6226, ".param": 6227, "Ġdecided": 6228, "INFO": 6229, "Ġopportunity": 6230, "Te": 6231, "ccording": 6232, "ki": 6233, "ĠUN": 6234, "Ġcontain": 6235, "Ġmanager": 6236, "Ġpain": 6237, "ĠFire": 6238, "rome": 6239, "Ġplans": 6240, "Found": 6241, "lay": 6242, "ĠDecember": 6243, "Ġinflu": 6244, "Ãº": 6245, "rench": 6246, "ĠĠĠĠĠĠĠĠĠĠĠĠĠĠĠĠĠĠĠĠĠĠĠĠĠĠĠĠĠĠĠĠĠ": 6247, "azing": 6248, "brief": 6249, "call": 6250, "wood": 6251, "Ġloaded": 6252, "Ġgrand": 6253, "/f": 6254, "imp": 6255, "_U": 6256, "STR": 6257, "âĢ¢": 6258, "Ġcredit": 6259, "orge": 6260, "QUEST": 6261, "Ġdifference": 6262, "ĠPC": 6263, "wargs": 6264, "Ġpub": 6265, "unday": 6266, "Ġfra": 6267, ".max": 6268, "Ġtried": 6269, "annels": 6270, "send": 6271, "Ġreports": 6272, "Ġadult": 6273, "Ġconsist": 6274, "ĠStreet": 6275, "ĠProgram": 6276, "SQL": 6277, "Matrix": 6278, "ouncil": 6279, "-A": 6280, "Ġwhose": 6281, "Ġrelig": 6282, "ĠSex": 6283, "Ġgives": 6284, "none": 6285, ".message": 6286, "(G": 6287, "-right": 6288, "ĠNovember": 6289, "ellig": 6290, "utive": 6291, "Äĥ": 6292, "overn": 6293, "Ġeasily": 6294, "Ġideas": 6295, "/css": 6296, "lying": 6297, "elle": 6298, "Can": 6299, "_color": 6300, "Ġpair": 6301, "ngth": 6302, "Ġsplit": 6303, "drop": 6304, "arty": 6305, "ona": 6306, "Ġcapital": 6307, "Ġhear": 6308, "Ġexists": 6309, "emo": 6310, "Run": 6311, "oi": 6312, "Ġparser": 6313, "ĠMethod": 6314, "Ġeducation": 6315, "[k": 6316, "Ġlibrary": 6317, "oded": 6318, "Ġcalls": 6319, "here": 6320, "Rel": 6321, "Ġbrand": 6322, "background": 6323, "ga": 6324, "_address": 6325, "_params": 6326, "Category": 6327, "ĠIndia": 6328, "_event": 6329, "Ġing": 6330, "Render": 6331, ".cl": 6332, "umpy": 6333, "Ġpet": 6334, "FC": 6335, "ĠAnt": 6336, "Ext": 6337, "Ġcharge": 6338, "ened": 6339, "grad": 6340, "EO": 6341, "Ġdepend": 6342, "frame": 6343, "Ġdf": 6344, "Ġhuge": 6345, "ĠPART": 6346, "eds": 6347, ";;": 6348, "ĠAM": 6349, "Ġbasic": 6350, "ĠLet": 6351, "lich": 6352, "Ġarm": 6353, "Ġstar": 6354, "Ġfederal": 6355, "Work": 6356, "Ġcarry": 6357, "ĠIsrael": 6358, "(obj": 6359, "={{": 6360, "Ġsaved": 6361, "Ġsyn": 6362, "Ġconstant": 6363, "VENT": 6364, "Ġpositive": 6365, "Ġconduct": 6366, "Ġskin": 6367, "Ġearlier": 6368, "Ġlayout": 6369, "ĠIP": 6370, "OUR": 6371, "Ġtim": 6372, "stylesheet": 6373, "_cl": 6374, "ĠCard": 6375, "Ġtemper": 6376, "ĠDavid": 6377, "Ġwants": 6378, "Ġpicture": 6379, "Ġvideos": 6380, "ĠComm": 6381, "isions": 6382, "_MAX": 6383, "Mapping": 6384, "-content": 6385, "ĠEar": 6386, "-de": 6387, "Ġprem": 6388, "bruary": 6389, "Ġcomponents": 6390, "Ġthroughout": 6391, "Ġpull": 6392, "Ġpages": 6393, "ente": 6394, "respond": 6395, "Ġgas": 6396, "criptor": 6397, "Ġedge": 6398, "Ġbound": 6399, "ACT": 6400, "Ġcreating": 6401, "ĠCH": 6402, "Ġnullptr": 6403, "Br": 6404, ".co": 6405, "Ġlearning": 6406, ".Length": 6407, "Ġpatients": 6408, "AIN": 6409, "Ġkids": 6410, "Ġcomfort": 6411, "Ġshown": 6412, "ugins": 6413, "ĠBack": 6414, "ella": 6415, "_CL": 6416, "Ġlat": 6417, "Ġdispatch": 6418, "Ġclasses": 6419, ".at": 6420, ".begin": 6421, "Ġsuccessful": 6422, "ban": 6423, "Ġobtain": 6424, "ĠSl": 6425, "Ġlack": 6426, "iterator": 6427, "Thread": 6428, "(size": 6429, "Ġnone": 6430, ".has": 6431, "_X": 6432, "sort": 6433, "nap": 6434, "pet": 6435, "bin": 6436, "ĠCanada": 6437, "They": 6438, "Ġdans": 6439, "ĠMat": 6440, "Ġhair": 6441, "Ġcu": 6442, "Ġlaws": 6443, "leted": 6444, "ped": 6445, "Ġpow": 6446, "Ġknew": 6447, "_,": 6448, "ĠMag": 6449, "idents": 6450, "(req": 6451, "Ġ),": 6452, "-center": 6453, "Ġwide": 6454, "ĠAuthor": 6455, "Ġjobs": 6456, "Ġmath": 6457, "etimes": 6458, "Boolean": 6459, "Ġscope": 6460, "_is": 6461, "Ġmeas": 6462, "Ġkeys": 6463, "elay": 6464, "Ġexactly": 6465, "ĠPaul": 6466, "mas": 6467, "(len": 6468, "fd": 6469, "Ġ);": 6470, "irit": 6471, "ields": 6472, "oman": 6473, "ĠTop": 6474, "Ġvote": 6475, "Ġmask": 6476, "Ġtheme": 6477, "Ġprops": 6478, "Ġfine": 6479, "Ġwriter": 6480, "_offset": 6481, "car": 6482, "Ġaltern": 6483, "Ġcopyright": 6484, "Ġdestroy": 6485, "pper": 6486, "Ġgenerate": 6487, "pped": 6488, "âĢĻd": 6489, "ĠĠĠĠĠĠĊ": 6490, "make": 6491, "ĠShow": 6492, "Ġbrowser": 6493, "Ġfavorite": 6494, "Ġcareer": 6495, "Ġhappened": 6496, "(char": 6497, "Ġrecommend": 6498, "Ġliter": 6499, ".filter": 6500, "grade": 6501, "ĠÂ£": 6502, "Phone": 6503, "oms": 6504, "Ġnamed": 6505, "-label": 6506, "ipo": 6507, "ĠOther": 6508, "Ġpanel": 6509, "Ġrock": 6510, "Scale": 6511, "Ġtrust": 6512, "front": 6513, "Ġdemon": 6514, "Ar": 6515, "Net": 6516, "Ġeconomic": 6517, "footer": 6518, "Ġrace": 6519, "(node": 6520, "ĠOption": 6521, "split": 6522, "Ġphysical": 6523, "ifest": 6524, "Ġremoved": 6525, ".http": 6526, "Ġlooked": 6527, "';": 6528, "ding": 6529, "gest": 6530, "aturday": 6531, "Price": 6532, "Ġdro": 6533, "Ġtowards": 6534, "Ġuns": 6535, "ĠCL": 6536, "Ġrows": 6537, "Ġdefine": 6538, ".replace": 6539, "Ġfather": 6540, "ĠDesign": 6541, "assign": 6542, "mut": 6543, "Device": 6544, "Did": 6545, "ometry": 6546, "ayload": 6547, "Ġhistor": 6548, "ĠParam": 6549, "ĠBoolean": 6550, "Ġnature": 6551, "Ġjs": 6552, "Ġnation": 6553, "ih": 6554, "Ġdiscover": 6555, "sem": 6556, "Handle": 6557, "ĠTechn": 6558, "Ġwall": 6559, "{$": 6560, "Ġexam": 6561, ".draw": 6562, "opping": 6563, "Ġnearly": 6564, "Ġcool": 6565, "Ġindepend": 6566, "RES": 6567, "Ġhandler": 6568, "ĠMonday": 6569, "Ġsun": 6570, "ously": 6571, "vest": 6572, "Display": 6573, "(y": 6574, "atically": 6575, "Ġpredict": 6576, "ying": 6577, "Ġsometimes": 6578, "Ġdrink": 6579, "Ġbul": 6580, "ifications": 6581, ".insert": 6582, ".reg": 6583, "Ġtests": 6584, "Alignment": 6585, "Ġalleg": 6586, "Ġattribute": 6587, "ĠNote": 6588, "Ġmyself": 6589, "arts": 6590, "Now": 6591, "Ġinteresting": 6592, "lients": 6593, "Ġpopulation": 6594, "ĠCalifornia": 6595, "\"I": 6596, "Ġgreater": 6597, "uesday": 6598, "Ġthous": 6599, "Ġcosts": 6600, "Ġlaunch": 6601, "ker": 6602, "band": 6603, "ĠPlay": 6604, "Ġband": 6605, ".shape": 6606, "esome": 6607, "article": 6608, "Ġwer": 6609, "Ã¡s": 6610, "embers": 6611, "usr": 6612, "BA": 6613, "ican": 6614, "ett": 6615, "validate": 6616, "ulti": 6617, "Ġimmediately": 6618, "zer": 6619, "Ġfigure": 6620, "oes": 6621, "eller": 6622, "ircle": 6623, "ĠSign": 6624, ".db": 6625, "Ġrank": 6626, "Bytes": 6627, "Ġprojects": 6628, "_rec": 6629, "API": 6630, "ĠLine": 6631, "Port": 6632, "Ġpoll": 6633, "Ġgiving": 6634, "idence": 6635, "Ġplot": 6636, "icial": 6637, "Ġwarrant": 6638, "ITION": 6639, "ĠDouble": 6640, "Ġbillion": 6641, "gorithm": 6642, "Ġequipment": 6643, "DATE": 6644, "EE": 6645, "Ġple": 6646, "iation": 6647, "Ġheaders": 6648, "Ġproced": 6649, "ĠObama": 6650, "Ġpa": 6651, "ĠBest": 6652, "imately": 6653, ".\\": 6654, "mploy": 6655, "Ġraw": 6656, "_block": 6657, "undred": 6658, "Ġbrought": 6659, "throw": 6660, "created": 6661, "_view": 6662, "CP": 6663, "eps": 6664, "Op": 6665, "Ġ'\"": 6666, "Ġinterview": 6667, "Ġpartial": 6668, "Ġaria": 6669, "bing": 6670, "Author": 6671, "Book": 6672, "ĠPat": 6673, "uman": 6674, "Users": 6675, "plus": 6676, "ĠDirect": 6677, "venue": 6678, "alpha": 6679, "ĠCall": 6680, "imated": 6681, "Ġremain": 6682, "Ġanti": 6683, "ĠLondon": 6684, "Ġsafety": 6685, "oles": 6686, "controller": 6687, "ĠCourt": 6688, "ĠPhil": 6689, "ĠAssoci": 6690, "ena": 6691, "coin": 6692, "reshold": 6693, "Ġbatch": 6694, "entication": 6695, "enty": 6696, "Ġbeginning": 6697, "Ġzero": 6698, "ĠConvert": 6699, "Ġterr": 6700, "Ġpaid": 6701, "Ġincreased": 6702, "catch": 6703, "-size": 6704, "activity": 6705, "equals": 6706, "Ġqueue": 6707, "Ġ\"'": 6708, "ĠInternational": 6709, "ĠfÃ¼r": 6710, "ursday": 6711, "Ġscient": 6712, "allow": 6713, "axis": 6714, "Ġappropri": 6715, "edge": 6716, "Ġidx": 6717, "Success": 6718, "entifier": 6719, ":\\": 6720, "xis": 6721, "Ġmaximum": 6722, "arks": 6723, "Ġbirth": 6724, "(index": 6725, "Ġmaybe": 6726, ".py": 6727, "files": 6728, "Ġlimited": 6729, "_check": 6730, "look": 6731, "plies": 6732, "Ġmovement": 6733, "'].": 6734, "Ġbroad": 6735, "ĠBE": 6736, ".cpp": 6737, "ĠEvery": 6738, "Admin": 6739, "Ġfans": 6740, "pared": 6741, "ĊĠĠĠĠĊ": 6742, "Ġforeign": 6743, "Ġpan": 6744, "Ġtour": 6745, "ĠOrder": 6746, "Ġmoving": 6747, "Ġauf": 6748, "Call": 6749, "cb": 6750, "ventory": 6751, "Ġfully": 6752, "WORD": 6753, "Ġannounced": 6754, "Ġagreed": 6755, "rie": 6756, "Ġearn": 6757, "_link": 6758, ".array": 6759, "(text": 6760, "Ġmaterials": 6761, ",p": 6762, "ffff": 6763, "vg": 6764, "ĠÂ©": 6765, "Ġunless": 6766, "LOG": 6767, "Ġsexual": 6768, "Ġ\\\"": 6769, "-time": 6770, "Ġcoach": 6771, "Ġsupported": 6772, "Ġphotos": 6773, "iform": 6774, ".Create": 6775, ")]": 6776, "rier": 6777, "Ġdialog": 6778, "aver": 6779, "ige": 6780, ")+": 6781, "_idx": 6782, ":[": 6783, "_min": 6784, "ĠCong": 6785, "Ġpressure": 6786, "Ġteams": 6787, "Sign": 6788, "begin": 6789, "rian": 6790, "NESS": 6791, "LS": 6792, "Ġimprove": 6793, "ĠSunday": 6794, "Ġdefinition": 6795, "iger": 6796, "rollers": 6797, "Ġthinking": 6798, "Template": 6799, "-F": 6800, "Ġemerg": 6801, "plates": 6802, "ĠUSA": 6803, "ĠAlso": 6804, "rev": 6805, "Ġenable": 6806, "ĠCO": 6807, "PECT": 6808, "Ġconcept": 6809, ")-": 6810, "ĠâĢ¢": 6811, "Ġsets": 6812, "Ġmeaning": 6813, "emon": 6814, "ĠCons": 6815, "cmp": 6816, "eder": 6817, "anned": 6818, "icensed": 6819, "ĠSuper": 6820, "Ġdaily": 6821, "Ġmulti": 6822, "_u": 6823, "Ġchalleng": 6824, "_mode": 6825, "ĠPromise": 6826, "Ġstrict": 6827, "jo": 6828, "inton": 6829, "(list": 6830, "Only": 6831, ">{": 6832, "Ġvehicle": 6833, "íķ": 6834, "ĠPlayer": 6835, "ĠDel": 6836, "Ġpool": 6837, ".url": 6838, "nesday": 6839, "Local": 6840, "Ġorganization": 6841, "render": 6842, "ĠApplication": 6843, "Ġsummer": 6844, "expected": 6845, "NA": 6846, "Ġrap": 6847, "Ġsurface": 6848, "Ġvariables": 6849, "(message": 6850, "Ġopin": 6851, "Ġworkers": 6852, "vm": 6853, "Co": 6854, "ughter": 6855, "Ġmaster": 6856, "Ġ\"\",": 6857, "Ġstories": 6858, "Ġcelebr": 6859, "inese": 6860, "BS": 6861, "ĠCommand": 6862, "ashboard": 6863, "Ġog": 6864, "kg": 6865, ".image": 6866, ".style": 6867, "Ġsteps": 6868, "ĠBen": 6869, "(args": 6870, "ĠPerson": 6871, ",y": 6872, "Ġofficials": 6873, "Ġskills": 6874, "vc": 6875, "Ġbuilder": 6876, "Ġgar": 6877, "Account": 6878, "ĠAuth": 6879, "ĠAT": 6880, "nn": 6881, "Ġeffective": 6882, "LETE": 6883, "Ġtools": 6884, "ARD": 6885, "Ġdigital": 6886, "Double": 6887, "ĠFind": 6888, "RC": 6889, "Ġinline": 6890, "/r": 6891, "Ġintent": 6892, "aight": 6893, "Ġrequests": 6894, ".first": 6895, "Ġdebug": 6896, "Ġspent": 6897, "ÅĽ": 6898, "Ġprincip": 6899, "cludes": 6900, ".use": 6901, "Ġsurv": 6902, "media": 6903, "ĠFebruary": 6904, "ĠMac": 6905, "Ġmissing": 6906, "Ġwife": 6907, "Ġtalking": 6908, "ĠMake": 6909, "Ġcart": 6910, "Ġlocated": 6911, "Enc": 6912, "-a": 6913, "chron": 6914, "Ġcards": 6915, "Ġguy": 6916, "Ġpers": 6917, "ĠYes": 6918, "atever": 6919, "ĠAng": 6920, "olar": 6921, "ĠEven": 6922, "Ġaccur": 6923, "ĠPower": 6924, "ĠGold": 6925, "clear": 6926, "Process": 6927, "Ġrecords": 6928, "Ġkilled": 6929, ".clear": 6930, "Ġpurpose": 6931, "panel": 6932, "JECT": 6933, "ÃŃa": 6934, "Ġexerc": 6935, "WS": 6936, "/L": 6937, ".exports": 6938, "Ġ___": 6939, "Ġsin": 6940, "ĠdÃ©": 6941, ".delete": 6942, "roke": 6943, "Sl": 6944, "ugh": 6945, "ears": 6946, "Ġpointer": 6947, "Ġhop": 6948, "allery": 6949, "Ġobs": 6950, "covery": 6951, "ocity": 6952, "itchen": 6953, "ulations": 6954, "Ġ).": 6955, "straints": 6956, "vention": 6957, "Ġrequires": 6958, "ĠOper": 6959, "ME": 6960, "OUNT": 6961, "allet": 6962, "Ġnorm": 6963, "IRE": 6964, "exas": 6965, "Ġprograms": 6966, "Ġweak": 6967, "uing": 6968, "Ġmil": 6969, "Ġfirm": 6970, "initely": 6971, "_VALUE": 6972, "apse": 6973, "atisf": 6974, "Ġdemand": 6975, "_mod": 6976, "Ġdescribed": 6977, "Ġplaces": 6978, "VID": 6979, "Ġalone": 6980, "Ġexport": 6981, "Ġvec": 6982, "ĠMax": 6983, "Ġactivities": 6984, "ictures": 6985, "gener": 6986, "Ġma": 6987, "Ĥ¬": 6988, "Ġexpression": 6989, "Callback": 6990, "_content": 6991, "ĠMost": 6992, "Ġtesting": 6993, "EC": 6994, "Ġadjust": 6995, ".Threading": 6996, "(ctx": 6997, "Ġagree": 6998, "ighest": 6999, "ĠLaw": 7000, ".Y": 7001, "><?": 7002, "Ġpod": 7003, "-lg": 7004, "Ġdescribe": 7005, "ĠEuropean": 7006, "-sh": 7007, "ORY": 7008, "Ġconvers": 7009, "ĠAv": 7010, "(ch": 7011, "?\"": 7012, "chen": 7013, "ima": 7014, "Document": 7015, "Ġoperations": 7016, "win": 7017, "Ġscen": 7018, "/h": 7019, "ĠSC": 7020, "Ġexplo": 7021, ":%": 7022, "NAME": 7023, "Ġdirector": 7024, "ONG": 7025, "Ġyield": 7026, "Ġfeet": 7027, "ĠSearch": 7028, "ĠIl": 7029, "Ġrestaur": 7030, "duc": 7031, "Ġinteger": 7032, "Ġhighly": 7033, "checked": 7034, "ï¼ī": 7035, "Ġoptim": 7036, "Queue": 7037, "ĠLI": 7038, "itation": 7039, "Ġtransport": 7040, "ission": 7041, "fill": 7042, "usion": 7043, "ĠĠĠĠĠĠĠĠĠĠĠĠĠĠĠĠĠĠĠĠĠĠĠĠĠĠĠĠĠĠ": 7044, "-th": 7045, "upt": 7046, "Ġessential": 7047, "anted": 7048, "Ġbenefits": 7049, "iki": 7050, "Ġgirls": 7051, "iced": 7052, "buffer": 7053, "]+": 7054, "Ġsocket": 7055, "Ġprices": 7056, "ĠFre": 7057, "Ġsat": 7058, "Ġwood": 7059, "ARG": 7060, "ĠAdmin": 7061, "OWN": 7062, "dk": 7063, "Ġreset": 7064, "Ġforms": 7065, "ĠÐ¸": 7066, "ĠTuesday": 7067, "_train": 7068, "orary": 7069, "ategor": 7070, "Ġdt": 7071, "Total": 7072, "construct": 7073, "ilies": 7074, "Ġguys": 7075, "ÐµÑĢ": 7076, "Ġinstruction": 7077, "yled": 7078, "Ġinternet": 7079, "etadata": 7080, "ady": 7081, "faces": 7082, "jection": 7083, "ĠJack": 7084, "Ġrect": 7085, "[-": 7086, "ĠLeg": 7087, "Ġdevices": 7088, "OC": 7089, "oration": 7090, "ertain": 7091, "Ġguard": 7092, "ostream": 7093, "Ġenum": 7094, "voke": 7095, "ĠOk": 7096, "Home": 7097, "(tr": 7098, "ETH": 7099, "Ġdelay": 7100, "Ġpurchase": 7101, "dc": 7102, "Ġaren": 7103, "_once": 7104, "ror": 7105, "draw": 7106, ".run": 7107, "(model": 7108, "Timeout": 7109, "lik": 7110, "ĠArg": 7111, ".en": 7112, "Ġfish": 7113, "_fe": 7114, "(X": 7115, "_output": 7116, "??": 7117, "Ġjo": 7118, "andard": 7119, "Ġdoll": 7120, "errors": 7121, "_base": 7122, "Ġleader": 7123, "Ġcompar": 7124, "Ġdoub": 7125, "ĠVis": 7126, "-C": 7127, "ĠStud": 7128, "stitute": 7129, "More": 7130, "ĠDescription": 7131, "ads": 7132, "bind": 7133, "=self": 7134, "employ": 7135, "[n": 7136, ".all": 7137, "-B": 7138, "alm": 7139, "Ġculture": 7140, "house": 7141, "Ġsuffer": 7142, "Ġ'%": 7143, "Ġstraight": 7144, "ĠStar": 7145, "udo": 7146, "Ġded": 7147, "ĠCOM": 7148, "Ġconfirm": 7149, "ĠGood": 7150, ".sc": 7151, "________________": 7152, "DR": 7153, "Configuration": 7154, "DateTime": 7155, "Ġadvert": 7156, "Ġcouldn": 7157, "async": 7158, "stack": 7159, "Kit": 7160, "Ġhous": 7161, "Ġmechan": 7162, "rate": 7163, "Ġaudio": 7164, "cores": 7165, "Ġspot": 7166, "Ġincreasing": 7167, "Ġ##": 7168, ")))": 7169, "points": 7170, "Ġcompared": 7171, "lig": 7172, "Ġbehavior": 7173, "ĠBY": 7174, "ĠAtt": 7175, "craft": 7176, "headers": 7177, "ete": 7178, "Ġdetail": 7179, "ĠCommon": 7180, "ston": 7181, "Ġfresh": 7182, ".example": 7183, "berg": 7184, "Ġmoved": 7185, "ĠSaturday": 7186, "Ġpayload": 7187, "Äĩ": 7188, "Ġbey": 7189, "urer": 7190, "<script": 7191, "Ġsymbol": 7192, "Ġassum": 7193, "Ġpul": 7194, "Effect": 7195, "Ġhundred": 7196, "Tool": 7197, "aked": 7198, "connection": 7199, "Ġvoice": 7200, "Ġpd": 7201, "Ġtransaction": 7202, "Ġlinks": 7203, "Err": 7204, "ĠIndian": 7205, "TC": 7206, "atalog": 7207, "ni": 7208, "sign": 7209, "ji": 7210, "ya": 7211, "Ġdemonstr": 7212, "ulated": 7213, "Ġinstit": 7214, "Ġboost": 7215, "Ġcells": 7216, "olic": 7217, ":</": 7218, "EventListener": 7219, "ifying": 7220, "ĠDi": 7221, "orrow": 7222, ".execute": 7223, "Ġcollege": 7224, "Your": 7225, "Ġlargest": 7226, ".dis": 7227, "Ġqui": 7228, "Ġindividuals": 7229, "Ġng": 7230, "SA": 7231, "ĠControl": 7232, "Ġsing": 7233, "Ġsuit": 7234, "SG": 7235, "Ġjump": 7236, "Ġsmart": 7237, "oma": 7238, "ĠExp": 7239, "Ġ'-": 7240, "Ġassist": 7241, "Ġsuccessfully": 7242, "sys": 7243, "ĠCre": 7244, "_ref": 7245, "ĠThursday": 7246, "Ġbur": 7247, "Ġbeyond": 7248, "Ġnodes": 7249, "Details": 7250, "inct": 7251, "ĠJames": 7252, "Ġaffect": 7253, "exception": 7254, "Ġtypeof": 7255, "-se": 7256, "Ġfetch": 7257, "`,": 7258, "Ġcrusher": 7259, "}.": 7260, "ĠBO": 7261, "Show": 7262, "Ġrates": 7263, "Ġbon": 7264, "-icon": 7265, "ĠMedia": 7266, "RESS": 7267, "ĠValid": 7268, "Ġfuck": 7269, "acks": 7270, "Ġstudies": 7271, "Me": 7272, "Ġowners": 7273, "Ġgrowing": 7274, "Variable": 7275, "ĠBel": 7276, ".random": 7277, "vement": 7278, "onym": 7279, "(F": 7280, "ĠFALSE": 7281, "Ġtorch": 7282, "(row": 7283, "igo": 7284, "structure": 7285, "Ġcertainly": 7286, "Dep": 7287, "ĠGreen": 7288, "question": 7289, "Ġadding": 7290, "ĠDevelop": 7291, "_def": 7292, "Ġmach": 7293, "=%": 7294, "conds": 7295, "Project": 7296, "Ġreject": 7297, "ĠÎ": 7298, "Ġpoor": 7299, "Ġaware": 7300, "ĠBuild": 7301, "ĠBritish": 7302, "ĠNE": 7303, "Ġnumer": 7304, "rees": 7305, "claim": 7306, "Ġmock": 7307, "Ġom": 7308, "Ġscre": 7309, "OLD": 7310, ".pl": 7311, "eler": 7312, "Ġcorrespond": 7313, "_HE": 7314, "Ġbinary": 7315, "_order": 7316, "ĠSQL": 7317, "Ġadvant": 7318, "Ġprev": 7319, ".[": 7320, ".assertEqual": 7321, "plier": 7322, "arp": 7323, "Ġclosed": 7324, "Ġencour": 7325, "aud": 7326, "Ġdeveloped": 7327, "Ġpermission": 7328, "operator": 7329, "Ġsym": 7330, "atively": 7331, "Ã©e": 7332, "-color": 7333, "ĠGET": 7334, "ky": 7335, "Ġalthough": 7336, "_request": 7337, "_element": 7338, "Ġamazing": 7339, "Ġsb": 7340, "ĠDefault": 7341, "Events": 7342, "Ġfailure": 7343, "acle": 7344, "Properties": 7345, "Ġdream": 7346, "Ġdistr": 7347, "Ġau": 7348, "Ġgenerated": 7349, "ĠTeam": 7350, "USE": 7351, "Ġincome": 7352, "Ġeye": 7353, "_not": 7354, "\"],": 7355, "_form": 7356, "Support": 7357, "orders": 7358, ".Print": 7359, "ville": 7360, "ĠWednesday": 7361, "olver": 7362, "Ġoppos": 7363, "isation": 7364, "ola": 7365, "Close": 7366, "<p": 7367, "_width": 7368, "Invalid": 7369, "xb": 7370, "Ġstrugg": 7371, "_action": 7372, "Ġtxt": 7373, "ĠPath": 7374, "alar": 7375, "service": 7376, "ĠMichael": 7377, "Debug": 7378, "okes": 7379, "She": 7380, "Ġguess": 7381, "ĠJava": 7382, "_PATH": 7383, "Ġparticularly": 7384, "ĠII": 7385, "Ġdomain": 7386, "Ġreduce": 7387, "-left": 7388, "real": 7389, "Ġappears": 7390, "Ġcomo": 7391, "ĠUnit": 7392, "ĠGovern": 7393, "ali": 7394, "allel": 7395, "ĠJew": 7396, "_I": 7397, "Ġcos": 7398, ".color": 7399, "ĠGlobal": 7400, "Ġtele": 7401, "ben": 7402, "_trans": 7403, "Ġreasons": 7404, "Ġemb": 7405, "ensity": 7406, "lines": 7407, "omin": 7408, "Screen": 7409, "Ð°ÑĤ": 7410, "pects": 7411, "clip": 7412, "foo": 7413, "rent": 7414, "Ġaf": 7415, "Ġdanger": 7416, "iling": 7417, "Names": 7418, "Our": 7419, "Ġdistribution": 7420, "While": 7421, "SL": 7422, "Write": 7423, "Ġcolors": 7424, "Ġpowerful": 7425, "kin": 7426, "Ġdepth": 7427, "ercial": 7428, "ĠCongress": 7429, "ĠMarket": 7430, "Db": 7431, "under": 7432, "ĠLast": 7433, "greg": 7434, "Ġposts": 7435, "_URL": 7436, "otos": 7437, "Don": 7438, "Ġmicro": 7439, "Ġarrest": 7440, "Ð¿": 7441, "ĠHot": 7442, "ĠIndex": 7443, ";&": 7444, "#!": 7445, "ĠNor": 7446, "ĠCap": 7447, "-(": 7448, "Ġinterested": 7449, "pear": 7450, "Ġrent": 7451, "Ġalbum": 7452, "olicy": 7453, ".format": 7454, "phere": 7455, "Ġaxis": 7456, "ĠBusiness": 7457, "ersistence": 7458, "urr": 7459, "Ġminimum": 7460, "endor": 7461, "ĠSD": 7462, "ĠInternet": 7463, "Exp": 7464, "iverse": 7465, "MM": 7466, "Ġobvious": 7467, "Ġbasis": 7468, "Ġscience": 7469, "Ġbudget": 7470, "izations": 7471, "PA": 7472, "Ġflags": 7473, "pret": 7474, "Ġvariety": 7475, "Ġtruth": 7476, "dt": 7477, "Ġgone": 7478, "Ġbattle": 7479, "<std": 7480, "ĠSil": 7481, "rf": 7482, "uda": 7483, "ĠCam": 7484, "Ġstation": 7485, "cheme": 7486, "ĠSun": 7487, "Ġfinished": 7488, "Ġshop": 7489, "ĠKore": 7490, "Ġeight": 7491, "ND": 7492, ">,": 7493, "\"><?": 7494, "(num": 7495, "Transaction": 7496, "Ġmail": 7497, "rey": 7498, "results": 7499, "Ġnav": 7500, "IMIT": 7501, "_ids": 7502, "Make": 7503, "Modal": 7504, "ĠLOG": 7505, "ĠSur": 7506, "Ġinstanceof": 7507, "Ġoverall": 7508, "ĠInformation": 7509, "Ġconstruction": 7510, "_FILE": 7511, "but": 7512, "Ġmedic": 7513, "Ġduration": 7514, "itness": 7515, "agent": 7516, "AV": 7517, "Ġseven": 7518, "olf": 7519, "Ġcalling": 7520, "Ġans": 7521, "orizontal": 7522, "ĠuseState": 7523, "ĠStatus": 7524, "ĠOnline": 7525, "RR": 7526, "ĠRich": 7527, "ĠHill": 7528, "Ġbrain": 7529, "Ġfollowed": 7530, "emic": 7531, "Ġslight": 7532, "Ġinsurance": 7533, "Ġabstract": 7534, "ĠSum": 7535, "redirect": 7536, "owner": 7537, "(msg": 7538, "ĠClinton": 7539, "Non": 7540, "Ġvolume": 7541, "-L": 7542, "ĠDim": 7543, "ĠMart": 7544, "Ġcursor": 7545, "Ġimplementation": 7546, "urred": 7547, "Ġlarger": 7548, ".transform": 7549, "Ġupload": 7550, "Draw": 7551, "nel": 7552, "qrt": 7553, "ĠNetwork": 7554, "Ġtit": 7555, "Axis": 7556, "Ġcompleted": 7557, "Ġmur": 7558, "Ġcolumns": 7559, "xc": 7560, "Ġsupply": 7561, "iminal": 7562, "Ġspr": 7563, "================================================================": 7564, "Ġunits": 7565, "(u": 7566, "mi": 7567, "replace": 7568, "[key": 7569, "antic": 7570, "Ġpayment": 7571, ",B": 7572, "ĠApple": 7573, "gin": 7574, "Required": 7575, "lands": 7576, "Ġsqu": 7577, "Ġfactor": 7578, "dec": 7579, "Ġstrength": 7580, "Ġboy": 7581, "Ġbalance": 7582, "Ġsources": 7583, "screen": 7584, "-top": 7585, "ĠAmazon": 7586, "Ġhidden": 7587, "_client": 7588, "Ġeat": 7589, ".display": 7590, "ĠÂ»": 7591, "Ġtrigger": 7592, "anager": 7593, "Ġtro": 7594, "Ġclaims": 7595, "ford": 7596, "ĠCompany": 7597, "Ġgift": 7598, "_app": 7599, "handle": 7600, "Ġproduce": 7601, "/lib": 7602, "'];": 7603, "arc": 7604, "ander": 7605, "ĠEngine": 7606, "Ġattributes": 7607, "task": 7608, "<=": 7609, "(N": 7610, "Ġwarm": 7611, "which": 7612, "ĠFore": 7613, "agnost": 7614, "mys": 7615, "Ġtal": 7616, "ĠSal": 7617, "gi": 7618, "ĠPrint": 7619, "ĠTRUE": 7620, "Ġflash": 7621, "roperty": 7622, ".location": 7623, "ĠMill": 7624, "bi": 7625, "contr": 7626, ".request": 7627, "ĠSam": 7628, "Ġnegative": 7629, "kit": 7630, "Ġsett": 7631, "abe": 7632, "Ġburn": 7633, "Ġsociety": 7634, "Cache": 7635, "ĠSecurity": 7636, ".models": 7637, "_up": 7638, "ceive": 7639, "Ġclients": 7640, "Ġproviding": 7641, "Ġrout": 7642, "material": 7643, "ĠSer": 7644, "ĠOffice": 7645, "Ġ'$": 7646, "Ġfoc": 7647, "Ġexcell": 7648, "Ġcat": 7649, "normal": 7650, "Ġdetermine": 7651, "Ġemployees": 7652, "ĠTexas": 7653, "Ġtraff": 7654, "ĠReport": 7655, "anta": 7656, "ĠBox": 7657, "Ġdjango": 7658, "Ġpartner": 7659, "EB": 7660, "LINE": 7661, "Ġfeeling": 7662, "Ġcivil": 7663, "(float": 7664, "Sql": 7665, "Ġwouldn": 7666, ".left": 7667, "-v": 7668, "_level": 7669, "'}": 7670, "AF": 7671, "Ġloading": 7672, "ĠOnly": 7673, "Ġcookies": 7674, "ĠGl": 7675, "CO": 7676, "Ġstrategy": 7677, "('./": 7678, "Ġship": 7679, "poses": 7680, "Ġsignal": 7681, "Ġalpha": 7682, ".pop": 7683, "Radius": 7684, "Ġreplace": 7685, "_DIR": 7686, "counter": 7687, "bservable": 7688, "ela": 7689, "Weight": 7690, "hash": 7691, "bose": 7692, "fx": 7693, "ĠEmail": 7694, "Ġrefer": 7695, "localhost": 7696, "iques": 7697, "Step": 7698, "Ġahead": 7699, "ĠServices": 7700, "ĠJson": 7701, "essor": 7702, "Ġpun": 7703, "Ġappropriate": 7704, "akers": 7705, "osen": 7706, "posing": 7707, "Ġagent": 7708, "fc": 7709, "Ġtransfer": 7710, "Ġinvalid": 7711, "ĠResearch": 7712, "Vertex": 7713, "Ġgay": 7714, "Ġjournal": 7715, "[x": 7716, "ĠWell": 7717, "Spec": 7718, "Ġol": 7719, "Ġspend": 7720, "ĠAustralia": 7721, "Match": 7722, "ĠĠĠĠĠĠĠĠĠĠĠĠĠĠĠĠĠĠĠĠĠĠĠĠĠĠĠĠĠĠĠĠĠĠĠĠĠ": 7723, "ĠMAX": 7724, "izable": 7725, "clusive": 7726, "_valid": 7727, "Ġquarter": 7728, "yan": 7729, "ĠEdit": 7730, "arden": 7731, "=new": 7732, "Ġfrag": 7733, "Bit": 7734, "zi": 7735, "aine": 7736, "udd": 7737, "debug": 7738, "Ġcash": 7739, "Ġcommercial": 7740, "ĠVideo": 7741, "loader": 7742, "Ġfixed": 7743, "Ġapplications": 7744, "Ġ_,": 7745, "ĠRussia": 7746, "itect": 7747, "_(": 7748, "ĠBlock": 7749, "Ġsan": 7750, "ĠTom": 7751, "Ġperhaps": 7752, "Ġsig": 7753, "levant": 7754, "Ġcorpor": 7755, "ataset": 7756, "ronic": 7757, "xe": 7758, "Ġeth": 7759, "Some": 7760, "pop": 7761, "Ġtend": 7762, "_and": 7763, "Ġreviews": 7764, "Ġwild": 7765, "Ġdegree": 7766, ".O": 7767, ".objects": 7768, "_args": 7769, "Ġdisabled": 7770, "Parent": 7771, "Ġnotes": 7772, "(state": 7773, "istrict": 7774, "Ġlogging": 7775, ".IO": 7776, "ĠMal": 7777, "DM": 7778, "Ġxml": 7779, "ĠRobert": 7780, "elen": 7781, "layout": 7782, "fol": 7783, "']))": 7784, ",b": 7785, "ĠJer": 7786, "filename": 7787, "Ġfan": 7788, "ĠCustom": 7789, "=\"\"": 7790, "ĠDie": 7791, "Bundle": 7792, ".utils": 7793, "Ġtrip": 7794, "MB": 7795, "Ġsoft": 7796, "Ġapplicable": 7797, "Ġupper": 7798, "ERVER": 7799, "_al": 7800, "Here": 7801, "wp": 7802, "ĠServer": 7803, "ĠClient": 7804, "Ġchem": 7805, "Scroll": 7806, "Ġhighest": 7807, "ĠSelect": 7808, "Ġ\"@": 7809, "ĠWhy": 7810, "Sec": 7811, "heel": 7812, "Operation": 7813, "Ġconnected": 7814, "irmed": 7815, "Ġcitiz": 7816, "ĠChe": 7817, "Ġforces": 7818, "Ġwww": 7819, "Root": 7820, "ANCE": 7821, "Many": 7822, "icip": 7823, "rgan": 7824, "ĠTor": 7825, "ĠPress": 7826, "ĠMor": 7827, "-line": 7828, "uled": 7829, ">\\": 7830, "Ġthus": 7831, "ĠRegister": 7832, "hol": 7833, "ĠChinese": 7834, "Ġposted": 7835, "Ġmagn": 7836, "abilities": 7837, "Ġdisease": 7838, "Ġremains": 7839, "ĠProf": 7840, "-form": 7841, "Ġcin": 7842, "organ": 7843, "icate": 7844, "Ġstress": 7845, "]*": 7846, "Ġ----------------------------------------------------------------": 7847, "_context": 7848, "orry": 7849, "Ġdied": 7850, "mat": 7851, "Ġstarts": 7852, ".Message": 7853, "Ġruns": 7854, "Ġguide": 7855, "Ġwarranty": 7856, "entials": 7857, "dict": 7858, "ĠSize": 7859, "uler": 7860, "Ġresponsible": 7861, "Ġcontaining": 7862, "ĠPrice": 7863, "||": 7864, "FS": 7865, "Ġemp": 7866, "Ġsuff": 7867, "pth": 7868, "Ġdefinitely": 7869, "pute": 7870, "Ġmarketing": 7871, "ĠWH": 7872, "ĠSie": 7873, "+=": 7874, "OLOR": 7875, "Ġconsult": 7876, "Ġsigned": 7877, "Ġsequence": 7878, "lee": 7879, "Ġrequirements": 7880, "hy": 7881, "Express": 7882, "MT": 7883, "sey": 7884, "Ġult": 7885, "elligence": 7886, "Ġanaly": 7887, "Ġdress": 7888, "engine": 7889, "ĠGreat": 7890, "ĠAndroid": 7891, "ĠAlex": 7892, "mode": 7893, "Dictionary": 7894, "VICE": 7895, "Ġfamilies": 7896, "ĠRussian": 7897, "ĠTimes": 7898, ".call": 7899, "$(": 7900, "Profile": 7901, "Ġfolder": 7902, "ches": 7903, "Ġlegis": 7904, "_row": 7905, "unes": 7906, "Ġ}).": 7907, "agen": 7908, "ĠHand": 7909, "Iter": 7910, "Ġbiggest": 7911, "Ġpolic": 7912, "Ġpermissions": 7913, "Ġshowed": 7914, "ĠElement": 7915, "Ġtopic": 7916, "road": 7917, "ĠBank": 7918, "record": 7919, "Ġpartners": 7920, "ĠRef": 7921, "essions": 7922, "Ġassess": 7923, "UST": 7924, "ĠParty": 7925, "produ": 7926, "LC": 7927, "Ġul": 7928, ".form": 7929, "hide": 7930, "copy": 7931, "UTF": 7932, "ĠLin": 7933, "una": 7934, "ugar": 7935, "Ġadministration": 7936, "Ġopening": 7937, "Ġscan": 7938, "Ġcontinued": 7939, "component": 7940, ".sp": 7941, "Ġhappens": 7942, "ummy": 7943, "ĠPR": 7944, "ĠDownload": 7945, "Loading": 7946, "di": 7947, "Ġwaiting": 7948, "Tab": 7949, ".querySelector": 7950, "Ġeconomy": 7951, "ĠFrench": 7952, "txt": 7953, "Ġfant": 7954, "SH": 7955, "Ġnumpy": 7956, "Ġstreet": 7957, "Ġmale": 7958, "anging": 7959, "ĠBill": 7960, "Ġpreviously": 7961, "BI": 7962, "ĠSecret": 7963, "Ġmist": 7964, "ĠField": 7965, "ups": 7966, "ĠProcess": 7967, "Ġkept": 7968, "ĠOT": 7969, "Ġtraditional": 7970, ".i": 7971, "amin": 7972, "Ġhelps": 7973, "Any": 7974, "origin": 7975, "ilters": 7976, "ju": 7977, "desc": 7978, "ĠAccount": 7979, "ktop": 7980, "olly": 7981, "Ġfs": 7982, "Ġut": 7983, "Ġcentral": 7984, "(test": 7985, "Ġsatisf": 7986, "GR": 7987, "ĠFull": 7988, "Ġheat": 7989, "iber": 7990, "Ġonto": 7991, "mos": 7992, "Schema": 7993, "Ġfactory": 7994, "aws": 7995, "Statement": 7996, "(target": 7997, "Ġguest": 7998, "Ġmal": 7999, "ARY": 8000, "Ġreached": 8001, "Ġmouse": 8002, "Ġchallenge": 8003, "ĠTem": 8004, "Ġterror": 8005, "Ġextract": 8006, "Ġseparate": 8007, "Ġmir": 8008, "help": 8009, "Ġcapacity": 8010, "ĠProperty": 8011, "kan": 8012, "_create": 8013, "ĠLight": 8014, ".parent": 8015, "Ġunderstanding": 8016, "Ġeasier": 8017, "Ġenh": 8018, "Ġfat": 8019, "Ġprotest": 8020, "amm": 8021, "-of": 8022, "ils": 8023, "ĠOh": 8024, "Ġpsych": 8025, "Ġ$.": 8026, "inds": 8027, "Ġrelative": 8028, "shop": 8029, "short": 8030, "ĠSand": 8031, "uestion": 8032, "Ġfear": 8033, ".context": 8034, "Ġschools": 8035, "Ġserve": 8036, "zone": 8037, "_db": 8038, "Ġmajority": 8039, "example": 8040, "Ġlang": 8041, "Register": 8042, "endo": 8043, "Ġprocessing": 8044, "_template": 8045, "-user": 8046, "Ġeg": 8047, "COM": 8048, "ĠBlue": 8049, "iro": 8050, "Ġremote": 8051, "ĠIT": 8052, "#!/": 8053, "Ġredistrib": 8054, "raz": 8055, "ĠSince": 8056, "ĠTur": 8057, "Background": 8058, "===": 8059, "Ġreflect": 8060, "Ġpros": 8061, "cmd": 8062, "Ġwhom": 8063, "Compat": 8064, "ĠAre": 8065, "Identifier": 8066, "ĠThom": 8067, "_port": 8068, "gu": 8069, "Ġmonitor": 8070, "rm": 8071, "Ġpatient": 8072, "verter": 8073, "Ġgain": 8074, "-ui": 8075, "Inst": 8076, "Ġdies": 8077, "Area": 8078, "_filter": 8079, "Ġgrat": 8080, "Ġreality": 8081, "ordinate": 8082, "olved": 8083, "Contact": 8084, "Ġcompliance": 8085, "_or": 8086, "ĠVar": 8087, "dl": 8088, "Ġappend": 8089, "GER": 8090, "(max": 8091, ".render": 8092, "Ġdynamic": 8093, "ordinates": 8094, "_options": 8095, "_column": 8096, "Ġbatter": 8097, "space": 8098, "La": 8099, "ĠSource": 8100, "/bin": 8101, "Ġdos": 8102, "ĠBoard": 8103, "ĠThread": 8104, "ĠAL": 8105, "(config": 8106, "ĠMer": 8107, "Ġmiles": 8108, "_header": 8109, "izz": 8110, "Ġbenefit": 8111, "Ġintegr": 8112, "(current": 8113, "ulo": 8114, "ĠDiv": 8115, "Ġton": 8116, "oth": 8117, "ervation": 8118, "edom": 8119, "Ġbaby": 8120, "ceived": 8121, ".top": 8122, "riority": 8123, "ĠLocal": 8124, "riage": 8125, "Ġattacks": 8126, "Ġhospital": 8127, "Ġfemale": 8128, "ĠLogin": 8129, "ĠFlor": 8130, "Ġchain": 8131, "ashion": 8132, "Texture": 8133, "Save": 8134, "Ġfarm": 8135, ".contains": 8136, "Ġknows": 8137, "Ġgenerally": 8138, "ipeline": 8139, "Ġmeant": 8140, "Ġcontents": 8141, "PM": 8142, "chedule": 8143, "(line": 8144, "CG": 8145, "job": 8146, "ĠReal": 8147, "uer": 8148, "firm": 8149, "etro": 8150, "Ġspeech": 8151, "Ġthr": 8152, "Ġwarn": 8153, "Ġheavy": 8154, "<li": 8155, "Ne": 8156, "Ġinvestigation": 8157, "Math": 8158, "-title": 8159, "Ġchurch": 8160, "Ġdespite": 8161, "chain": 8162, "Ġwhatever": 8163, "arian": 8164, "fn": 8165, "Ġmeta": 8166, "Ġregarding": 8167, "mes": 8168, "ĠIntent": 8169, "Ġresolve": 8170, "poss": 8171, "ira": 8172, "force": 8173, "oice": 8174, "Ã¢": 8175, "Ġpm": 8176, "Ġupdates": 8177, "Arr": 8178, "testing": 8179, "Ġtoward": 8180, "ntax": 8181, "ëĭ": 8182, "Ġlisten": 8183, "Ġgoals": 8184, "Dr": 8185, "Ġrare": 8186, "Ġtrail": 8187, "Keys": 8188, "Cal": 8189, "Car": 8190, "ĠPeople": 8191, "classes": 8192, "Reference": 8193, ".forEach": 8194, "emb": 8195, "activ": 8196, "Ġprim": 8197, "redict": 8198, "Ġrad": 8199, "Ġspread": 8200, "Ġclock": 8201, "Ġvir": 8202, "editor": 8203, "Ġefforts": 8204, "Ġbranch": 8205, "Ġindust": 8206, "Ġmotor": 8207, "Ġamb": 8208, "Ġdatetime": 8209, "ĠChristian": 8210, "ĠAmericans": 8211, "full": 8212, "Ġfmt": 8213, ".main": 8214, "Ġcaused": 8215, "_update": 8216, "ĠContent": 8217, "ATCH": 8218, "Ġbath": 8219, "ĠEach": 8220, "Ġradio": 8221, "achment": 8222, "uzz": 8223, "Submit": 8224, "Ġrestrict": 8225, "abin": 8226, "ĠLoad": 8227, "Ġextension": 8228, "Ġessay": 8229, "Ġhat": 8230, "aviour": 8231, "Ġoffered": 8232, "Ġvill": 8233, "(double": 8234, "bc": 8235, "_free": 8236, "ĠMiss": 8237, "ĠBer": 8238, "ĠLike": 8239, "Ġhelped": 8240, "Ġspirit": 8241, "ĠApache": 8242, "ws": 8243, "Ġtherefore": 8244, "Ġpeace": 8245, "Ġincor": 8246, "Ġminor": 8247, "ipes": 8248, "city": 8249, "trie": 8250, ".base": 8251, "_frame": 8252, "Ġopened": 8253, "/json": 8254, "LY": 8255, "nu": 8256, "tf": 8257, "margin": 8258, "Ġpi": 8259, "Ġeq": 8260, "bd": 8261, "Fields": 8262, "ĠTree": 8263, "Ġban": 8264, "istan": 8265, "ĊĠĠĠĠĠĠĠĠĊ": 8266, "Ġproduced": 8267, "system": 8268, "Mark": 8269, "_hash": 8270, "Ġbg": 8271, "Ġconstit": 8272, "ĠLeague": 8273, "Ġmission": 8274, "_format": 8275, "clusion": 8276, "!\"": 8277, "Ð·": 8278, "break": 8279, "Ġther": 8280, "Transform": 8281, "Ġfootball": 8282, "-link": 8283, "route": 8284, ".auth": 8285, "Ġbag": 8286, "overs": 8287, "Ġenabled": 8288, "Ġrac": 8289, "(I": 8290, "CR": 8291, "ancing": 8292, "Ġmanaged": 8293, "_q": 8294, "Ġmac": 8295, "ĠAuto": 8296, "Ġ'',": 8297, "Ġpin": 8298, ".item": 8299, "acking": 8300, "Ġoccas": 8301, "person": 8302, "Ġti": 8303, "Ġhaven": 8304, "Ġglass": 8305, "ĠSimple": 8306, "Print": 8307, "Ġsurround": 8308, "NO": 8309, "ĠMany": 8310, "Ġweekend": 8311, "Ġsomew": 8312, ".params": 8313, "small": 8314, "ATED": 8315, "Ġplugin": 8316, "fields": 8317, "ĠInitialize": 8318, "oon": 8319, "atile": 8320, "ye": 8321, "Ġvous": 8322, "Ġolder": 8323, "Ġgam": 8324, "Ġextremely": 8325, "Ġhet": 8326, "enum": 8327, "ĠSET": 8328, "Ġtimer": 8329, "/index": 8330, "Ġcritical": 8331, "Rows": 8332, "_argument": 8333, "Ġexecute": 8334, "Ġshowing": 8335, ".xml": 8336, "-list": 8337, "Role": 8338, "_method": 8339, "that": 8340, "cher": 8341, "ĠâĨ": 8342, "XT": 8343, "Ġthousands": 8344, "Ġresp": 8345, "_price": 8346, "olut": 8347, "Ag": 8348, "ĠTwo": 8349, "Ġbecomes": 8350, "Ġhus": 8351, ".Use": 8352, "theme": 8353, "urb": 8354, "ARN": 8355, "Ġlose": 8356, "Lower": 8357, "Ġvel": 8358, "Ġdefense": 8359, "condition": 8360, "Ġbes": 8361, "Ġdry": 8362, "Ġscroll": 8363, "IEL": 8364, "ĠRest": 8365, "Where": 8366, "oods": 8367, "ĠJes": 8368, "Ġwire": 8369, "Ġstrings": 8370, "gment": 8371, "Ġmatches": 8372, "Ġelectric": 8373, "Ġexcellent": 8374, "ĠCouncil": 8375, "idade": 8376, "push": 8377, "_entry": 8378, "Ġtasks": 8379, "Ġrich": 8380, "sa": 8381, "ĠSmith": 8382, "UNCTION": 8383, "Pointer": 8384, "pective": 8385, "Ġwidget": 8386, "ista": 8387, "Ġagency": 8388, "ologies": 8389, "Ġtrial": 8390, "alysis": 8391, ".check": 8392, "ARK": 8393, "ĠonChange": 8394, "about": 8395, "(val": 8396, "Ġplaced": 8397, "Ġdan": 8398, "Ġweather": 8399, "Ġdestination": 8400, "_USER": 8401, "iece": 8402, "Ġprovider": 8403, ".last": 8404, "plex": 8405, "Note": 8406, "ĠpÃ¥": 8407, "Ġplanning": 8408, "attribute": 8409, "PRO": 8410, "atches": 8411, "Ġ<-": 8412, "Ġseeing": 8413, "Ġcancel": 8414, "_ind": 8415, ".keys": 8416, "Ġvisual": 8417, "ĠCurrent": 8418, "ĠCollege": 8419, "ĠRock": 8420, "Ġagreement": 8421, "ĠStore": 8422, "oving": 8423, "Ġcorner": 8424, "ampions": 8425, "ISE": 8426, "Fin": 8427, "Ġprotection": 8428, "Ġfi": 8429, "Play": 8430, "plugin": 8431, ")}": 8432, "-z": 8433, "Ġtransition": 8434, "igin": 8435, "Ġcandidate": 8436, "ĠUnion": 8437, "_values": 8438, "(map": 8439, "cle": 8440, "Ġtrend": 8441, "wide": 8442, "aren": 8443, "Loc": 8444, "UTH": 8445, "ĠBay": 8446, "Ġsmaller": 8447, "ius": 8448, "well": 8449, "Ġcriminal": 8450, "Ġconflic": 8451, "bert": 8452, "_INT": 8453, "Ġinvestment": 8454, "custom": 8455, "ĠSession": 8456, "ania": 8457, "ĠMass": 8458, "Ġviolence": 8459, "Argument": 8460, "_email": 8461, "Ġbelong": 8462, "_function": 8463, "Ġenemy": 8464, "ema": 8465, "ĠAddress": 8466, ".empty": 8467, "Ġinner": 8468, "ĠContact": 8469, "Loader": 8470, "ĠCA": 8471, "lot": 8472, "Ġpictures": 8473, "ĠSupport": 8474, "_names": 8475, "Layer": 8476, "ĠClick": 8477, "Sum": 8478, "Ã¦": 8479, "ĠLook": 8480, "uous": 8481, "Lib": 8482, "team": 8483, "EP": 8484, "hat": 8485, "override": 8486, "apsed": 8487, "Ġlabels": 8488, "quis": 8489, "ĠStream": 8490, "_device": 8491, "ĠCommit": 8492, "(root": 8493, "\"}": 8494, ".isEmpty": 8495, "Ġangle": 8496, "ĠBecause": 8497, "Ġaim": 8498, "Ġstick": 8499, "stmt": 8500, "agraph": 8501, "answer": 8502, "Ġclin": 8503, "ĠIsl": 8504, ".ext": 8505, "ĠINT": 8506, "Ġstyles": 8507, "Ġborn": 8508, "Ġscr": 8509, "Ġexpand": 8510, "Ġraised": 8511, "ILL": 8512, "------------------------------------------------": 8513, "HTTP": 8514, ">)": 8515, "_char": 8516, "resource": 8517, "Ġepisode": 8518, "ĠEs": 8519, "ĠEarth": 8520, "UPDATE": 8521, "ĠSou": 8522, "uis": 8523, "types": 8524, "Ġmas": 8525, "Ġfav": 8526, "Ġconstruct": 8527, "_rate": 8528, "eras": 8529, "roperties": 8530, "Ġexternal": 8531, "Ġapplied": 8532, "Ġprefix": 8533, "oted": 8534, "lers": 8535, "Ġcold": 8536, "ĠSP": 8537, "ĠChurch": 8538, "ĠOutput": 8539, "losed": 8540, "ificate": 8541, "operation": 8542, "herit": 8543, ".env": 8544, "osh": 8545, "Direction": 8546, "Cancel": 8547, "ĠFrank": 8548, "Ġfinding": 8549, "Ġrouter": 8550, "ãĥ»": 8551, "ses": 8552, "Ġcrow": 8553, "Ġsand": 8554, "Ġrid": 8555, "iture": 8556, "Ġentre": 8557, "Ġobserv": 8558, "Ġvac": 8559, "ðŁ": 8560, "-T": 8561, "Art": 8562, "night": 8563, ".search": 8564, "Ġexchange": 8565, "Ġdistrict": 8566, "Ġdepartment": 8567, "Ġdocuments": 8568, "Ġcentury": 8569, "ĠNext": 8570, "Host": 8571, "Ġsusp": 8572, "-P": 8573, "rend": 8574, "uite": 8575, "isters": 8576, "(json": 8577, "ĠAnn": 8578, "wt": 8579, "ati": 8580, "ĠHTML": 8581, "when": 8582, "Directory": 8583, "Ġshut": 8584, "<a": 8585, "edy": 8586, "Ġhealthy": 8587, "Ġtemperature": 8588, "ĠGen": 8589, "Ġmetal": 8590, "Ġsubmit": 8591, "ĠDO": 8592, "Ġattract": 8593, "ĠWord": 8594, "Ġll": 8595, "Ġseemed": 8596, "ko": 8597, "IED": 8598, "Ġlabor": 8599, "Ġasset": 8600, "you": 8601, "Ġcars": 8602, "ĠColumn": 8603, "Ġsquare": 8604, "âĢĿ,": 8605, "apes": 8606, "Ġthanks": 8607, "Ġtick": 8608, "Ġexperiment": 8609, "Ġprison": 8610, "tree": 8611, "-text": 8612, "-width": 8613, "fast": 8614, "-body": 8615, "-header": 8616, "Ġguar": 8617, "crete": 8618, "ĠTim": 8619, "Ġclearly": 8620, "ĠRepublican": 8621, "Ġjustify": 8622, "cache": 8623, "Ġpresence": 8624, "Ġfactors": 8625, "Ġemployee": 8626, "]))": 8627, "Member": 8628, "Ġselector": 8629, "bor": 8630, "ĠMex": 8631, "_tag": 8632, "ailure": 8633, "ĠNet": 8634, "Ġreli": 8635, "EG": 8636, "Ġfprintf": 8637, "Ġteen": 8638, "loss": 8639, "Ġleaving": 8640, "Ġbeat": 8641, "Ġminute": 8642, "subscribe": 8643, "Ġredistribute": 8644, "Ġcancer": 8645, "/{": 8646, "BL": 8647, "Ġspan": 8648, "ĠChild": 8649, "Center": 8650, "Ġearth": 8651, "YS": 8652, "ĠLevel": 8653, "Ġsea": 8654, ".inner": 8655, "illing": 8656, "ĠLabel": 8657, "ĠEst": 8658, "cos": 8659, "Failed": 8660, "swers": 8661, "Editor": 8662, "ront": 8663, "ĠMP": 8664, "expr": 8665, "ĠLife": 8666, "Ġ??": 8667, "Ã¶r": 8668, "Ġattend": 8669, "ĠQue": 8670, "Ġspecies": 8671, "-D": 8672, "Ġaus": 8673, "Struct": 8674, "Ġadvantage": 8675, "oston": 8676, "-block": 8677, "initial": 8678, "CRE": 8679, "Ġtruly": 8680, "Ġcompare": 8681, "orney": 8682, "Ġspect": 8683, "Full": 8684, "bes": 8685, "Ġvisible": 8686, "Ġmess": 8687, "stances": 8688, "Ġcloud": 8689, "_version": 8690, "Ġfurn": 8691, "icago": 8692, "LOW": 8693, "Ġtraffic": 8694, "Ġfol": 8695, "rypto": 8696, "Ġdeclar": 8697, "Ġslot": 8698, "ĠExt": 8699, "ĠEngland": 8700, "ĠUnder": 8701, "Ġta": 8702, "letter": 8703, "Ġofficer": 8704, "ĠDonald": 8705, "Yes": 8706, "_json": 8707, "ĠUSE": 8708, "mployee": 8709, "Ġopinion": 8710, "ĠAut": 8711, "border": 8712, "Ġadvice": 8713, "Ġautomatically": 8714, "isco": 8715, "Ġmm": 8716, "aml": 8717, "Ġinitialize": 8718, "Ġ({": 8719, "Ġgeneration": 8720, "Ġbits": 8721, "clipse": 8722, "Ġunf": 8723, "utors": 8724, "plt": 8725, "Ġdelta": 8726, "estroy": 8727, "isis": 8728, "<br": 8729, "Ġlimitations": 8730, "Ġended": 8731, "ĠMad": 8732, "ilm": 8733, "These": 8734, "ĠMinister": 8735, "Ġchart": 8736, "Ġindependent": 8737, "Year": 8738, "Ġinstr": 8739, "Ġtags": 8740, "AVE": 8741, "ĠArch": 8742, "stop": 8743, "Progress": 8744, "Ġmi": 8745, "Ġlearned": 8746, "Ge": 8747, "Ġhotel": 8748, "SM": 8749, "Ġcy": 8750, "unately": 8751, "limit": 8752, "sel": 8753, "Ġmovies": 8754, "Ġsteel": 8755, "oz": 8756, "gb": 8757, "ĠCamp": 8758, "site": 8759, "PLE": 8760, ".right": 8761, "ĠCore": 8762, "Ġmixed": 8763, "step": 8764, "Ġputs": 8765, "super": 8766, "lyph": 8767, "ĠColors": 8768, "Ġinnov": 8769, "Ġdeck": 8770, "apers": 8771, "](": 8772, "continue": 8773, "spec": 8774, "ĠRoad": 8775, "ASH": 8776, "iliar": 8777, "Ġcontinues": 8778, "Ġappoint": 8779, "ĠVir": 8780, "Ġ?>\"": 8781, "Ġbin": 8782, "}\",": 8783, "going": 8784, "each": 8785, "BD": 8786, "ĠAccess": 8787, "Doc": 8788, "ĠManagement": 8789, "BER": 8790, "asket": 8791, "Ġestablished": 8792, "socket": 8793, "INS": 8794, "READ": 8795, "_height": 8796, "ĠFont": 8797, "_html": 8798, "Ġneighbor": 8799, "lor": 8800, "Ġgather": 8801, "Ġidentity": 8802, "Ġfab": 8803, "padding": 8804, "ĠRoute": 8805, "Ġforced": 8806, "resents": 8807, "_left": 8808, "ĠHam": 8809, "Ġeventually": 8810, "acer": 8811, "pub": 8812, "Ġtra": 8813, "unique": 8814, "del": 8815, "ĠFlorida": 8816, "ĠClean": 8817, "xa": 8818, "ĠÂ·": 8819, "Ġvalidate": 8820, "Visual": 8821, "Expression": 8822, "_func": 8823, "member": 8824, "trl": 8825, "napshot": 8826, "vin": 8827, "owl": 8828, "ifies": 8829, "ĠContext": 8830, "ĠToast": 8831, "Ġofficers": 8832, "/n": 8833, "sn": 8834, "undefined": 8835, ".items": 8836, "amage": 8837, "Ġaccounts": 8838, "ookie": 8839, "Section": 8840, "icians": 8841, "Ġadvis": 8842, "(is": 8843, "[:,": 8844, "ĠFrance": 8845, "Func": 8846, "icious": 8847, "Ġtok": 8848, "Channel": 8849, "ĠAD": 8850, "_NUM": 8851, "Ġtimeout": 8852, "reme": 8853, "uj": 8854, "uclear": 8855, "(os": 8856, "fetch": 8857, "Ġbal": 8858, "Ġguid": 8859, "-align": 8860, "ĠWrite": 8861, "ĠOnce": 8862, "Ġpitch": 8863, "CF": 8864, "bytes": 8865, "ĠCommission": 8866, "Ġincred": 8867, "PER": 8868, "_response": 8869, "ĠLos": 8870, "parser": 8871, "Ġassume": 8872, "ĠToken": 8873, "_position": 8874, "Ġnom": 8875, "-term": 8876, "Ġremaining": 8877, "iostream": 8878, "Ġpieces": 8879, "apy": 8880, "ĠLess": 8881, "range": 8882, "umbn": 8883, "prise": 8884, "_option": 8885, "Impl": 8886, "kwargs": 8887, "Ġbusinesses": 8888, "Alert": 8889, "Ġparties": 8890, "ĠContainer": 8891, "ĠPrivate": 8892, "ĠPlan": 8893, "Ġregistered": 8894, "Ġjour": 8895, "acker": 8896, "ÐµÐ½Ð¸": 8897, "/>": 8898, "chat": 8899, "sect": 8900, "Ġcreation": 8901, "olutely": 8902, "Ġinstant": 8903, "Ġdelivery": 8904, "icken": 8905, "yes": 8906, "ĠFranc": 8907, "bling": 8908, "enda": 8909, "[(": 8910, "_range": 8911, "ĠĠĠĠĠĠĠĠĠĠĠĠĠĠĠĠĠĠĠĠĠĠĠĠĠĠĠĠĠĠĠĠĠĠ": 8912, "Ġschedule": 8913, "Conn": 8914, "Ġthank": 8915, "xd": 8916, "Ġhook": 8917, "Ġdocumentation": 8918, "Parameters": 8919, "Hello": 8920, "vt": 8921, "Ġarticles": 8922, "Ġwest": 8923, "defined": 8924, ".select": 8925, "okens": 8926, "ĠVAL": 8927, ".file": 8928, "reset": 8929, "ĠMA": 8930, "]),": 8931, "Ġcities": 8932, "related": 8933, "Ġappeared": 8934, "Ġwid": 8935, "ĠIns": 8936, "Ġdecre": 8937, "ĠLou": 8938, "(time": 8939, "ĠThank": 8940, ".createElement": 8941, "Ġmentioned": 8942, "ounce": 8943, "ĠTry": 8944, "ĠWall": 8945, "/images": 8946, "ĠMenu": 8947, "ĠEr": 8948, "Ġcritic": 8949, "ĠYear": 8950, "Ġflo": 8951, "NN": 8952, "ooter": 8953, "ĠAff": 8954, "rooms": 8955, "Ġhyp": 8956, "global": 8957, "Ġcompletion": 8958, "Ġcond": 8959, "onymous": 8960, "Ġstars": 8961, "Ġrelevant": 8962, "Ġcovered": 8963, "Ġelim": 8964, "_types": 8965, "Ġtu": 8966, "Ġsecure": 8967, "Ġstored": 8968, "]/": 8969, "ĠController": 8970, "Ġmigr": 8971, "MI": 8972, "ĠDen": 8973, "Ġannual": 8974, "-and": 8975, "Ġcrime": 8976, "bel": 8977, "Ġkitchen": 8978, "@g": 8979, "_ph": 8980, "ournament": 8981, "ĠSocial": 8982, "ĠSpecial": 8983, "logger": 8984, "Ġtail": 8985, "Ġunknown": 8986, "ded": 8987, "Ġapprec": 8988, "(db": 8989, "cf": 8990, "Ġassign": 8991, "-out": 8992, "ĠMont": 8993, "dp": 8994, "Ġstone": 8995, "-primary": 8996, ".grid": 8997, "Results": 8998, "azz": 8999, "Ġdaughter": 9000, "Ġcurr": 9001, "Ġlin": 9002, "Ġsouth": 9003, "forms": 9004, "ĠOUT": 9005, "lette": 9006, "aks": 9007, "igure": 9008, "ĠEU": 9009, "variable": 9010, "Ġbrief": 9011, "ĠScott": 9012, "Ġconference": 9013, "anda": 9014, "_lock": 9015, "oral": 9016, "Ġeine": 9017, "ORS": 9018, "Ġris": 9019, "Ġgender": 9020, "estic": 9021, "License": 9022, "(out": 9023, "Ġms": 9024, "See": 9025, "Ġwilling": 9026, "aze": 9027, "Ġsports": 9028, "Ġyes": 9029, "lu": 9030, "Ġpurs": 9031, "-pro": 9032, "navbar": 9033, "_product": 9034, "Ġdriving": 9035, "Ġpropos": 9036, "ultip": 9037, "uplic": 9038, ".email": 9039, "Ġapprox": 9040, "Ġwear": 9041, "Ġreply": 9042, "asset": 9043, "Ġice": 9044, "Ġtx": 9045, "kr": 9046, "ĠGermany": 9047, "ĠGeorge": 9048, "Ġcb": 9049, "Move": 9050, "Ġpoly": 9051, "voice": 9052, "}\"": 9053, "Ġanimal": 9054, "Av": 9055, "ĠLocation": 9056, "Ġnative": 9057, "Ġprepar": 9058, "Ġinterval": 9059, "plementation": 9060, "Ġbug": 9061, ">\"": 9062, "stat": 9063, "<span": 9064, "Ġfaith": 9065, "Ġrom": 9066, "prev": 9067, "ĠElect": 9068, "Find": 9069, "Ġgod": 9070, "otor": 9071, "original": 9072, "ĠSenate": 9073, "Ġpositions": 9074, "Ġweapons": 9075, "Ġcoff": 9076, "Ġpurposes": 9077, "pol": 9078, "Ġimpress": 9079, "Ġanimals": 9080, "(np": 9081, "Ġmurder": 9082, "Ġ``": 9083, "flag": 9084, "Ġsolutions": 9085, "ĠActive": 9086, "Ġbright": 9087, ".date": 9088, "Ġsitu": 9089, "ï¼Ī": 9090, "Ġsie": 9091, "akt": 9092, "Space": 9093, "han": 9094, "azine": 9095, "ĠZe": 9096, "Ġcrash": 9097, "(/": 9098, ">=": 9099, "iva": 9100, "ĠLat": 9101, "Initialize": 9102, ".register": 9103, "OPY": 9104, "Ġreverse": 9105, "_dis": 9106, "Ġprompt": 9107, "onto": 9108, "ĠJournal": 9109, "router": 9110, ")\"": 9111, "-xs": 9112, "lets": 9113, "phan": 9114, "Will": 9115, "Ġafford": 9116, "Ġskill": 9117, "-toggle": 9118, "NC": 9119, "TS": 9120, "Just": 9121, "iteral": 9122, "YP": 9123, "Ġwind": 9124, "Ġwarning": 9125, "ĠWater": 9126, "Ġdraft": 9127, "Ġcm": 9128, "Ġsam": 9129, "Ġholding": 9130, "zip": 9131, "ĠScience": 9132, "Ġsupposed": 9133, "Gen": 9134, "Ġdiet": 9135, "<h": 9136, "ĠPass": 9137, "vi": 9138, "Ġhusband": 9139, "ï¿½ï¿½": 9140, "note": 9141, "ĠAbout": 9142, "ĠInstitute": 9143, "Ġclimate": 9144, "Ġnut": 9145, "ested": 9146, "Ġapparent": 9147, "Ġholds": 9148, "fi": 9149, "news": 9150, "CM": 9151, "video": 9152, "ping": 9153, "Ġsenior": 9154, "wa": 9155, "ĠDatabase": 9156, "rep": 9157, "ESS": 9158, "nergy": 9159, "_mask": 9160, "Ġrise": 9161, "Ġkernel": 9162, ".Q": 9163, "Ġoffering": 9164, "decl": 9165, "ĠCS": 9166, "Ġlisted": 9167, "Ġmostly": 9168, "enger": 9169, "Ġblocks": 9170, "olo": 9171, "Ġgoverning": 9172, "Ġconcent": 9173, "Ġmb": 9174, "Ġoccurred": 9175, "Ġchanging": 9176, "Scene": 9177, "Beh": 9178, "\"The": 9179, "Ġtile": 9180, "ĠAssociation": 9181, "alty": 9182, "_ad": 9183, "odies": 9184, "iated": 9185, "Ġprepared": 9186, "possible": 9187, "Ġmort": 9188, "TEST": 9189, "Ġignore": 9190, "Ġcalc": 9191, "Ġrs": 9192, "ĠTHIS": 9193, "Ġcanvas": 9194, "java": 9195, "Ġdut": 9196, ".sql": 9197, ".input": 9198, "Ġaux": 9199, "Sup": 9200, "Ġartist": 9201, "Vec": 9202, ".stringify": 9203, "etween": 9204, "ĠCategory": 9205, "Ġ[-": 9206, "ĠJul": 9207, "Ġring": 9208, ".ed": 9209, "YY": 9210, "Let": 9211, "Ġflat": 9212, "_print": 9213, "adian": 9214, "Ġchecked": 9215, "ele": 9216, "Align": 9217, "standing": 9218, "Ġ[],": 9219, "Ġlab": 9220, "ucky": 9221, "ĠChristmas": 9222, "(image": 9223, "Ġlots": 9224, "Ġslightly": 9225, "erge": 9226, "ĠPolice": 9227, "ĠRight": 9228, "Ġaward": 9229, "ĠOS": 9230, "Ġptr": 9231, "oves": 9232, "icated": 9233, "Ġmanage": 9234, "oliday": 9235, "Amount": 9236, "tbody": 9237, "Nav": 9238, "wrap": 9239, "BB": 9240, "Ġwatching": 9241, "arios": 9242, "Ġoptional": 9243, "_K": 9244, "ĠLicensed": 9245, ".Map": 9246, "Timer": 9247, "ĠAP": 9248, "ĠRev": 9249, "(o": 9250, ",c": 9251, "umin": 9252, "etailed": 9253, "ĠHy": 9254, "Ġblank": 9255, "agger": 9256, "ĠSelf": 9257, "()[": 9258, "earn": 9259, "channel": 9260, "blem": 9261, "_password": 9262, "_sp": 9263, "icing": 9264, "ez": 9265, "Ġtheory": 9266, "ĠTer": 9267, ",n": 9268, "logo": 9269, "ĠHTTP": 9270, "()))": 9271, "World": 9272, "Ġpython": 9273, "Ġlif": 9274, "Ġtrav": 9275, "Ġconven": 9276, "company": 9277, "ĠClub": 9278, "Ver": 9279, "Btn": 9280, "Ġzone": 9281, "products": 9282, "ĠEduc": 9283, "Ġverify": 9284, "ĠMil": 9285, "ono": 9286, "ENCE": 9287, "Ġpacket": 9288, "Ġcer": 9289, "Ġenumer": 9290, "Ġpars": 9291, "formed": 9292, "Ġoccup": 9293, "tre": 9294, "Ġexercise": 9295, "Day": 9296, "_sum": 9297, "Ġasking": 9298, "aption": 9299, "Ġorders": 9300, "Ġspending": 9301, "ĠERR": 9302, "ĠUtil": 9303, "âĢľI": 9304, "\\'": 9305, "?)": 9306, "Ġemot": 9307, "Ġinfluence": 9308, "ĠAfrica": 9309, "atters": 9310, "Ùħ": 9311, ".session": 9312, "Ġchief": 9313, "Ġtom": 9314, "cluded": 9315, "serial": 9316, "_handler": 9317, "aped": 9318, "Ġpolicies": 9319, "-ex": 9320, "-tr": 9321, "blank": 9322, "merce": 9323, "Ġcoverage": 9324, "_matrix": 9325, "_box": 9326, "Ġcharges": 9327, "ĠBoston": 9328, "Pe": 9329, "Ġcircum": 9330, "Ġfilled": 9331, "Ġnorth": 9332, "Ġtermin": 9333, "Ġ[âĢ¦": 9334, "Ġber": 9335, "retch": 9336, ".code": 9337, "_col": 9338, "ĠGovernment": 9339, "ĠLord": 9340, "asi": 9341, "Exec": 9342, "vertis": 9343, "Ġdiscussion": 9344, "enance": 9345, "outube": 9346, "typeof": 9347, "Ġserved": 9348, "ĠPut": 9349, "Ġsweet": 9350, "Before": 9351, "ategy": 9352, ".of": 9353, "ĠMaterial": 9354, "Sort": 9355, "ONT": 9356, "igital": 9357, "Why": 9358, "Ġsust": 9359, "abet": 9360, "Ġsegment": 9361, "ĠMuslim": 9362, "cut": 9363, "_TEXT": 9364, "ĠMary": 9365, "Ġloved": 9366, "Ġlie": 9367, "ĠJO": 9368, "month": 9369, "Ġprime": 9370, "ti": 9371, "ĠCarol": 9372, "Use": 9373, "ĠPop": 9374, "ĠSave": 9375, "Interval": 9376, "execute": 9377, "dy": 9378, "ĠIran": 9379, "Ġphase": 9380, "checkbox": 9381, "week": 9382, "Ġhide": 9383, "Ġtil": 9384, "Ġju": 9385, "Custom": 9386, "burg": 9387, "/M": 9388, "TON": 9389, "Ġquant": 9390, "Ġrub": 9391, "ixels": 9392, "Ġinstalled": 9393, "Ġdump": 9394, "Ġproperly": 9395, "(List": 9396, "Ġdecide": 9397, "apply": 9398, "Has": 9399, "Ġkeeping": 9400, "Ġcitizens": 9401, "Ġjoint": 9402, "pool": 9403, "Socket": 9404, "_op": 9405, "Ġweapon": 9406, "gnore": 9407, "ĠExec": 9408, "otten": 9409, "ĠMS": 9410, "Ġ(-": 9411, "ĠReview": 9412, "Ġexamples": 9413, "Ġtight": 9414, "!(": 9415, "DP": 9416, "Ġphotograph": 9417, "Ã©t": 9418, "low": 9419, "ĠGrand": 9420, "Ġmaintain": 9421, "Ġnums": 9422, "Ġzip": 9423, "ials": 9424, "ĠGets": 9425, "peg": 9426, "ĠBuffer": 9427, "~~~~": 9428, "rastructure": 9429, "ĠPL": 9430, "uen": 9431, "obby": 9432, "Ġpic": 9433, "Ġseed": 9434, "Ġexperienced": 9435, "Ġodd": 9436, "Ġkick": 9437, "Ġprocedure": 9438, "avigator": 9439, "-on": 9440, ",j": 9441, "ĠAlthough": 9442, "ĠuserId": 9443, "accept": 9444, "Blue": 9445, "layer": 9446, "available": 9447, "Ġends": 9448, ".table": 9449, "Ġdataset": 9450, "bus": 9451, "Ġexplain": 9452, "ĠCommittee": 9453, "Ġnoted": 9454, "Dim": 9455, "stdio": 9456, "_source": 9457, "ĠWeek": 9458, "ĠEdge": 9459, "Ġoperating": 9460, "Ġeste": 9461, "ipl": 9462, "agination": 9463, "Ġproceed": 9464, "Ġanimation": 9465, "ĠWatch": 9466, "iat": 9467, "Ġoppon": 9468, "/A": 9469, "Report": 9470, "Ġsounds": 9471, "IELD": 9472, "Ġbund": 9473, ".pr": 9474, "Ġkid": 9475, "Ġyang": 9476, "math": 9477, "@gmail": 9478, "ĠLIMIT": 9479, "redients": 9480, "Ġvent": 9481, "avigate": 9482, "Look": 9483, "Ġreligious": 9484, "Ġrand": 9485, "rio": 9486, "_ip": 9487, "uan": 9488, "iciency": 9489, "ĠChange": 9490, "ĠEntity": 9491, "ĠRet": 9492, "plan": 9493, "Ã©n": 9494, "uries": 9495, "train": 9496, "Definition": 9497, "============": 9498, "zz": 9499, "Animation": 9500, "ĠOK": 9501, "_menu": 9502, "_score": 9503, "Ġacad": 9504, "Ġrefresh": 9505, "pid": 9506, "tc": 9507, "Ġtips": 9508, "Ġhomes": 9509, "Ġfuel": 9510, "âĸ": 9511, "ĠRoom": 9512, "_attr": 9513, "ĠMount": 9514, "ĠEv": 9515, "_top": 9516, "eah": 9517, "ĠDelete": 9518, "ãĢį": 9519, "uke": 9520, "Ġusage": 9521, "aria": 9522, "Ġtexture": 9523, "Ġconversation": 9524, "eper": 9525, "Bean": 9526, "done": 9527, "ĠSecond": 9528, "Ġshooting": 9529, "_pre": 9530, "Components": 9531, "stitution": 9532, ".Char": 9533, "Ġpresented": 9534, "Ġwa": 9535, "oker": 9536, "iner": 9537, "Ġbecoming": 9538, "Ġincident": 9539, "Att": 9540, "Ġrevealed": 9541, "forc": 9542, "Ġboot": 9543, "Photo": 9544, "Ġspring": 9545, ".\",": 9546, "ĠDictionary": 9547, "Ġlocations": 9548, "Ġsamples": 9549, "ĠBrown": 9550, "Ġstats": 9551, "quality": 9552, "-dis": 9553, "Ġhelping": 9554, "Ġped": 9555, "(se": 9556, "ĠWho": 9557, "alian": 9558, "internal": 9559, "Ġft": 9560, "->{": 9561, "Ġmine": 9562, "Ġsector": 9563, "Ġgro": 9564, "Ġopportunities": 9565, "Ġmp": 9566, "Ġalleged": 9567, "Ġdoubt": 9568, "Mouse": 9569, "About": 9570, "_part": 9571, "Ġchair": 9572, "Ġstopped": 9573, "loop": 9574, "Ġapps": 9575, "ansion": 9576, "Ġmental": 9577, "FR": 9578, "Ġdefend": 9579, "care": 9580, "Ġideal": 9581, "/api": 9582, "urface": 9583, "Ġele": 9584, "ulator": 9585, "ĠRights": 9586, "anguages": 9587, "Ġfunds": 9588, "Ġadapt": 9589, "Attributes": 9590, "Ġdeploy": 9591, "opts": 9592, "Ġvalidation": 9593, "Ġconcerns": 9594, "uce": 9595, ".num": 9596, "ulture": 9597, "ila": 9598, "Ġcup": 9599, "Ġpure": 9600, "ĠHashMap": 9601, "asm": 9602, "MO": 9603, "Ġcs": 9604, "Ġstores": 9605, "Ġcommunication": 9606, "mem": 9607, ".Status": 9608, "_right": 9609, "Sheet": 9610, "Ġidentify": 9611, "enerated": 9612, "ordered": 9613, "Ġ\"[": 9614, "Ġswe": 9615, "Condition": 9616, "ĠAccording": 9617, "Ġprepare": 9618, "Ġrob": 9619, "Pool": 9620, "Ġsport": 9621, "rv": 9622, "ĠRouter": 9623, "Ġalternative": 9624, "([]": 9625, "ĠChicago": 9626, "ipher": 9627, "ische": 9628, "ĠDirector": 9629, "kl": 9630, "ĠWil": 9631, "keys": 9632, "Ġwelcome": 9633, "king": 9634, "ĠManager": 9635, "Ġcaught": 9636, "Score": 9637, "Ġsurvey": 9638, "hab": 9639, "Headers": 9640, "Ġdecor": 9641, "Ġturns": 9642, "Ġradius": 9643, "errupt": 9644, "Cor": 9645, "Ġmel": 9646, "Ġintr": 9647, "(q": 9648, "ĠAC": 9649, "amos": 9650, "MAX": 9651, "ĠGrid": 9652, "ĠJesus": 9653, "ĠĠĠĠĠĠĠĠĠĠĠĠĠĠĠĠĠĠĠĠĠĠĠĠĠĠĠĠĠĠĠĠĠĠĠĠ": 9654, "Ġts": 9655, "Ġlinked": 9656, "free": 9657, "Ġfaster": 9658, "ctr": 9659, "_J": 9660, "DT": 9661, "Ġcombination": 9662, "Ġintended": 9663, "-the": 9664, "-type": 9665, "ectors": 9666, "ami": 9667, "uting": 9668, "XML": 9669, "Ap": 9670, "ĠRandom": 9671, "Ġran": 9672, ".sort": 9673, "Ġsorted": 9674, "itory": 9675, "Ġpriority": 9676, "ĠGal": 9677, "ĠOld": 9678, "hot": 9679, "ĠDisplay": 9680, "(sub": 9681, "_Y": 9682, "ĠCare": 9683, "loading": 9684, "Kind": 9685, ",,": 9686, "rase": 9687, "_replace": 9688, ".addEventListener": 9689, "ĠRT": 9690, "Ġentered": 9691, "gers": 9692, "Ġich": 9693, "(start": 9694, "/app": 9695, "Ġbrother": 9696, "Memory": 9697, "prec": 9698, "Ġnavigation": 9699, "ORK": 9700, "Detail": 9701, "Ġaudience": 9702, "Ġdur": 9703, "Ġcluster": 9704, "unched": 9705, "Ġ],": 9706, "Ġcomfortable": 9707, ".values": 9708, "ĠTotal": 9709, "Ġsnap": 9710, "Ġstandards": 9711, "Ġperformed": 9712, "hand": 9713, "Ġphil": 9714, "ibr": 9715, "trim": 9716, "Ġforget": 9717, "Ġdoctor": 9718, "icons": 9719, ",s": 9720, "ĠOp": 9721, "Sm": 9722, "Stop": 9723, "Comment": 9724, "Person": 9725, "rb": 9726, "ĠCentral": 9727, "ICK": 9728, "raq": 9729, "Ġputting": 9730, "Ġmd": 9731, "ĠLove": 9732, "Program": 9733, "Border": 9734, "oor": 9735, "Ġallowing": 9736, "after": 9737, "Ġentries": 9738, "ĠMaybe": 9739, "]).": 9740, "ĠShort": 9741, ")\\": 9742, ".now": 9743, "friend": 9744, "Ġprefer": 9745, "ĠGPIO": 9746, "osis": 9747, "Ġskip": 9748, "Ġcompetition": 9749, "_match": 9750, "lications": 9751, "Ġals": 9752, "\"We": 9753, "lan": 9754, "_search": 9755, "ĠMusic": 9756, "asis": 9757, "Ġbind": 9758, "ĠIsland": 9759, "rum": 9760, "(E": 9761, "Ġseat": 9762, "Video": 9763, "Ġack": 9764, "reek": 9765, "={()": 9766, "Ġrating": 9767, "Ġrestaurant": 9768, "DEX": 9769, "pping": 9770, "uality": 9771, "Ġleague": 9772, "Ġfocused": 9773, "apon": 9774, "Ġabsolute": 9775, "(query": 9776, "Ġtells": 9777, "Ang": 9778, "Ġcommunities": 9779, "Ġhonest": 9780, "oking": 9781, "Ġapart": 9782, "arity": 9783, "/$": 9784, "ĠEnc": 9785, "Cre": 9786, "Ġshock": 9787, "ĠArab": 9788, "IENT": 9789, "/re": 9790, "Ġretrie": 9791, "isa": 9792, "ĠOrgan": 9793, "Ġí": 9794, "Ġpossibly": 9795, "ĠJapanese": 9796, "Ġcraft": 9797, "ĠPlace": 9798, "Ġtalent": 9799, "Ġfunding": 9800, "Ġconfirmed": 9801, "Ġcycle": 9802, "/x": 9803, "GE": 9804, "Ġhearing": 9805, "Ġplants": 9806, "Ġmouth": 9807, "pages": 9808, "oria": 9809, "ĠRemove": 9810, "_total": 9811, "Ġod": 9812, "ollapse": 9813, "door": 9814, "Ġbought": 9815, "Ġaddr": 9816, "ARCH": 9817, "_dim": 9818, "dden": 9819, "Ġdecades": 9820, "REQUEST": 9821, "Ġversions": 9822, "fire": 9823, "Ġmoves": 9824, "fb": 9825, "Ġcoffee": 9826, ".connect": 9827, "ĠRow": 9828, "Ġschema": 9829, "Scope": 9830, "-Type": 9831, "Ġfighting": 9832, "Ġretail": 9833, "Ġmodified": 9834, "TF": 9835, "Files": 9836, "nie": 9837, "_command": 9838, "stone": 9839, "_thread": 9840, "Ġbond": 9841, "ĠDevelopment": 9842, "Ġpt": 9843, "plet": 9844, "Ġidentified": 9845, "cpp": 9846, "Ġcoding": 9847, "oked": 9848, "ĠMaster": 9849, "IDTH": 9850, "Ġresidents": 9851, "redit": 9852, "ĠPhoto": 9853, "=-": 9854, "unte": 9855, "ateur": 9856, "ĠSing": 9857, "Ġsheet": 9858, ".val": 9859, "orse": 9860, "Ġhers": 9861, "Ġdetermined": 9862, "Common": 9863, "Ġwed": 9864, "_queue": 9865, "PH": 9866, "ĠAtl": 9867, "cred": 9868, "Ġmes": 9869, "Ġadvanced": 9870, ".java": 9871, "Go": 9872, "kill": 9873, "fp": 9874, "_settings": 9875, "Ġpal": 9876, "Ġtruck": 9877, "Ġcombined": 9878, "Ġ\"${": 9879, "ĠCorpor": 9880, "Ġjoined": 9881, "ĠJose": 9882, "ĠCup": 9883, "uns": 9884, "estival": 9885, "levision": 9886, "Ġbroken": 9887, "Ġmarriage": 9888, "ĠWestern": 9889, "Ġrepresents": 9890, "ĠTitle": 9891, "Ġss": 9892, "ongoose": 9893, "Ġabsolutely": 9894, "Ġsmooth": 9895, "ĠUnless": 9896, "Word": 9897, "Ġmerge": 9898, "igan": 9899, "ĠVol": 9900, "Ġnn": 9901, "Ġsexy": 9902, "Ġseeking": 9903, "Single": 9904, "Ġkom": 9905, "bound": 9906, ";\"": 9907, "ĠfontSize": 9908, "_df": 9909, "Ġinjury": 9910, "(H": 9911, "Ġissued": 9912, "Ġpatch": 9913, "Ġleaves": 9914, "Ġadopt": 9915, "ãĢĲ": 9916, "Ġexecutive": 9917, "ĠByte": 9918, "Ġnu": 9919, "outing": 9920, "cluding": 9921, "-R": 9922, ".options": 9923, "Ġsubstant": 9924, "ĠBUT": 9925, "Ġtechnical": 9926, "Ġtwice": 9927, "ĠmÃ¡s": 9928, "Ġunivers": 9929, "yr": 9930, "Ġdrag": 9931, "ĠDC": 9932, "Ġsed": 9933, "Ġbot": 9934, "ĠPal": 9935, "ĠHall": 9936, "forcement": 9937, "notation": 9938, "_files": 9939, ".line": 9940, "_flag": 9941, "[name": 9942, "Ġresolution": 9943, "Ġbott": 9944, "(\"[": 9945, "ende": 9946, "(arr": 9947, "Free": 9948, "ĠDistrict": 9949, "PEC": 9950, ":-": 9951, "ĠJo": 9952, "ĠĠĠĠĠĊ": 9953, "ĠRiver": 9954, "_rows": 9955, "Ġhelpful": 9956, "Ġmassive": 9957, "Ġmeasures": 9958, "ĠRuntime": 9959, "Ġworry": 9960, "ĠSpec": 9961, "ãĢĳ": 9962, "Ġworse": 9963, "Ġlay": 9964, "Ġmagic": 9965, "ĠTheir": 9966, "oul": 9967, "ĠWhere": 9968, "Ġsudden": 9969, "Ġdefe": 9970, "Ġbinding": 9971, "Ġflight": 9972, "ĠWomen": 9973, "ĠPolicy": 9974, "Ġdrugs": 9975, "ishing": 9976, "ĠMel": 9977, "peat": 9978, "tor": 9979, "Ġproposed": 9980, "Ġstated": 9981, "Ġeast": 9982, "Ġwinning": 9983, "folio": 9984, "ĠPan": 9985, "ĠAnge": 9986, "Ġcopies": 9987, "LM": 9988, "Ġdictionary": 9989, "Seg": 9990, "elines": 9991, "ĠSend": 9992, "Ġiron": 9993, "ĠFort": 9994, "Ġdebate": 9995, "eq": 9996, "acher": 9997, "lf": 9998, "ĉfmt": 9999, "Ġlawy": 10000, "ĠMen": 10001, "Ġtrim": 10002, "Ġ!!": 10003, "Ġpad": 10004, "Ġfollows": 10005, "requ": 10006, "ĠEp": 10007, ".github": 10008, "(img": 10009, "eto": 10010, "('\\": 10011, "Services": 10012, "umbnail": 10013, "pleted": 10014, "fortunately": 10015, "Ġwindows": 10016, "Ġplane": 10017, "ĠConnection": 10018, "uard": 10019, "}\\": 10020, "andon": 10021, "ĠRoy": 10022, "west": 10023, "iginal": 10024, "emies": 10025, "itz": 10026, "ĠPeter": 10027, "Ġtough": 10028, "Ġreduced": 10029, "Ġcalculate": 10030, "Ġrapid": 10031, "customer": 10032, "Ġefficient": 10033, "Ġmedium": 10034, "Ġfell": 10035, "ĠCas": 10036, "Ġfeedback": 10037, "Speed": 10038, "(output": 10039, "aje": 10040, "Ġcategories": 10041, "Ġfee": 10042, "};": 10043, "Ġdeleted": 10044, "reh": 10045, "Ġproof": 10046, "Desc": 10047, "Build": 10048, "Ġsides": 10049, "-%": 10050, "ĠĠĠĠĠĠĠĠĠĠĠĠĠĠĠĠĠĠĠĠĠĠĠĠĠĠĠĠĠĠĠĠĠĠĠĠĠĠ": 10051, "Ø±": 10052, ".match": 10053, "Ġfeels": 10054, "Ġachieve": 10055, "Ġclim": 10056, "ĠCD": 10057, "Ġteacher": 10058, "_current": 10059, "bn": 10060, "isting": 10061, "Enable": 10062, "GEN": 10063, "Ġtv": 10064, "Ġsock": 10065, "Ġplays": 10066, "Ġdiscount": 10067, "ĠKE": 10068, "ĠDebug": 10069, "Fore": 10070, "ĠIraq": 10071, "Ġappearance": 10072, "Mon": 10073, "Ġstyled": 10074, "ĠHuman": 10075, "iot": 10076, "ĠHistory": 10077, "Ġsac": 10078, "ĠCollection": 10079, "Ġrecommended": 10080, "Ġorganizations": 10081, "Ġdiscovered": 10082, "cohol": 10083, "adas": 10084, "ĠThomas": 10085, "May": 10086, "Ġconserv": 10087, "Ġdomin": 10088, "ĠFollow": 10089, "ĠSection": 10090, "ĠThanks": 10091, "Username": 10092, "Ġrecipe": 10093, "Ġwonderful": 10094, ".sleep": 10095, "_if": 10096, "Ġru": 10097, "_target": 10098, "à¦": 10099, "Ġinputs": 10100, "Ġfif": 10101, "Ġvision": 10102, "cy": 10103, "ĠSeries": 10104, "Ġtrading": 10105, "Ġmarker": 10106, "Begin": 10107, "Ġtypically": 10108, "Ġcauses": 10109, "Ġdetect": 10110, "country": 10111, "appy": 10112, "ĠLE": 10113, "reader": 10114, "Ġadministr": 10115, "ucket": 10116, "Ġfashion": 10117, ".char": 10118, "izar": 10119, "Ġdisable": 10120, "Ġsuc": 10121, "ĠLive": 10122, "issue": 10123, "Ġmetadata": 10124, "flags": 10125, "ĠðŁ": 10126, "Ġcommitted": 10127, "Ġva": 10128, "Ġrough": 10129, "Ġhighlight": 10130, "VO": 10131, "Ġencoding": 10132, "-Z": 10133, "_sign": 10134, "Ġrain": 10135, "reatest": 10136, "ĠEND": 10137, "Selection": 10138, "Ġcandidates": 10139, "Ġsav": 10140, "Ġdecisions": 10141, "Ġcollabor": 10142, "ridge": 10143, "feed": 10144, "ression": 10145, "Ġpersons": 10146, "VM": 10147, "ega": 10148, "According": 10149, "acked": 10150, "Ġdollars": 10151, "_loss": 10152, "ĠCost": 10153, "Notification": 10154, "Ġauthority": 10155, "Ġspokes": 10156, "ĠToday": 10157, "istant": 10158, "ĠHead": 10159, "âĢĿ.": 10160, "ertainment": 10161, "cean": 10162, "culate": 10163, "Ġven": 10164, "However": 10165, "_arr": 10166, "Ġtokens": 10167, "Graph": 10168, "ĠJud": 10169, "ĠVirgin": 10170, "ĠSerial": 10171, "unning": 10172, "agers": 10173, ".csv": 10174, "Ġdeveloping": 10175, "Ġinstructions": 10176, "Ġpromise": 10177, "Ġrequested": 10178, "_encode": 10179, "/\"": 10180, "ĠIcon": 10181, "uilt": 10182, "-day": 10183, "Ġintelligence": 10184, "ĠHard": 10185, "Bool": 10186, "idential": 10187, "Ġselling": 10188, "CI": 10189, "tle": 10190, "bur": 10191, "RY": 10192, "Ġbigger": 10193, "Ġrat": 10194, "Ġfamous": 10195, "Ġexplained": 10196, "Ġnuclear": 10197, "-N": 10198, "Ġcrisis": 10199, "ĠEnter": 10200, "Ġanswers": 10201, "/${": 10202, "/pl": 10203, "Ġsequ": 10204, "_next": 10205, "mask": 10206, "Ġstanding": 10207, "Ġplenty": 10208, "ĠCross": 10209, "dro": 10210, "ĠCast": 10211, "=true": 10212, "ĠChris": 10213, "ĠMike": 10214, "Decimal": 10215, "Len": 10216, "Ġcock": 10217, "Ġ#{": 10218, "URN": 10219, "Ġauthorities": 10220, "Resources": 10221, "-H": 10222, "Bottom": 10223, "_qu": 10224, "puter": 10225, "esterday": 10226, "Dispatch": 10227, "since": 10228, "Ġfamiliar": 10229, ",i": 10230, "VC": 10231, "Ġment": 10232, ",C": 10233, "Ġfreedom": 10234, "Ġroutes": 10235, "ĠBuy": 10236, "Ġcommands": 10237, "Ġmesh": 10238, "/C": 10239, "ĠSettings": 10240, "-style": 10241, "Ġwitness": 10242, "Ġcle": 10243, "Ġunion": 10244, "aret": 10245, "Ġthoughts": 10246, "Ġ----": 10247, "_process": 10248, "_us": 10249, "ingly": 10250, "UES": 10251, "Touch": 10252, "_open": 10253, "ĠVec": 10254, "Ġreward": 10255, "/:": 10256, "Changes": 10257, "Month": 10258, "ï¼Ł": 10259, "Ġexecution": 10260, "Ġbeach": 10261, "(Integer": 10262, "/'": 10263, "Ġabort": 10264, "ĠSingle": 10265, "Ġdp": 10266, "Ġ}}</": 10267, "ĠMa": 10268, "ĠPet": 10269, "%)": 10270, "rand": 10271, "Rule": 10272, "Ġhel": 10273, "Ġquiet": 10274, "Ġratio": 10275, "osoph": 10276, "ĠIL": 10277, "Ġadvent": 10278, "cap": 10279, ";</": 10280, "ĠUSB": 10281, "Driver": 10282, "Ġours": 10283, "ĠJohnson": 10284, ".K": 10285, "/common": 10286, "ĠPDF": 10287, "acts": 10288, "ĠQuery": 10289, ".response": 10290, "ĠGirl": 10291, "Ġprocesses": 10292, "<Integer": 10293, "imo": 10294, "Ġadds": 10295, "Ġentirely": 10296, "Ġwash": 10297, "Ġanimated": 10298, "Ġprofit": 10299, "encing": 10300, "/S": 10301, "ĠSym": 10302, "Ġmanual": 10303, "Download": 10304, "Ġmotion": 10305, "-bottom": 10306, "PG": 10307, "Ġera": 10308, "Ġho": 10309, "ĠJim": 10310, "quir": 10311, "Ã¡n": 10312, "DER": 10313, "Ġexpensive": 10314, "_co": 10315, "Well": 10316, "ĠDemocratic": 10317, "ĠâĨĴ": 10318, "names": 10319, "ĠVi": 10320, "Ġisinstance": 10321, "\\\">": 10322, "Ġ*=": 10323, "ĠPS": 10324, "Ġdangerous": 10325, "[p": 10326, "OME": 10327, "Other": 10328, "Points": 10329, "heading": 10330, "Ġcurrency": 10331, "Ġpercentage": 10332, "_API": 10333, "Ġclassic": 10334, "thead": 10335, "ĠMO": 10336, "FE": 10337, "Idx": 10338, "await": 10339, "ĠÃ¨": 10340, "Ġaccident": 10341, "Ġvariant": 10342, "Ġmyst": 10343, "ĠLand": 10344, "ĠBre": 10345, "Ġharm": 10346, "ĠAcc": 10347, "Ġcharged": 10348, "Visibility": 10349, "arry": 10350, "ĠLanguage": 10351, "Ġwalking": 10352, "ifer": 10353, "Ġleadership": 10354, "ynam": 10355, "Ġtimestamp": 10356, "ipt": 10357, "ĠHas": 10358, "ĠIts": 10359, "Ġlistener": 10360, "UTE": 10361, "_description": 10362, "Ġexperiences": 10363, "Ġcreates": 10364, "RS": 10365, "cart": 10366, "black": 10367, "Ġchoices": 10368, "war": 10369, "Ġordered": 10370, "Ġevening": 10371, "Ġpil": 10372, "Ġtun": 10373, "ĠBad": 10374, "(app": 10375, "random": 10376, "Ġexplicit": 10377, "Ġarrived": 10378, "Ġfly": 10379, "Ġeconom": 10380, "-mail": 10381, "Ġlists": 10382, "Ġarchitect": 10383, "ĠPay": 10384, "Ġds": 10385, "ĠSol": 10386, "Ġvehicles": 10387, "Hz": 10388, "-com": 10389, "Ġking": 10390, "ĠHelp": 10391, "Ġabuse": 10392, "Ġextr": 10393, "Ġchemical": 10394, "Ġorient": 10395, "Ġbreath": 10396, "ĠSpace": 10397, "(element": 10398, "wait": 10399, "DED": 10400, "igma": 10401, "Ġentr": 10402, "Ġsob": 10403, "-name": 10404, "Ġaffected": 10405, "ika": 10406, "Ġcoal": 10407, "_work": 10408, "Ġhundreds": 10409, "Ġpolitics": 10410, "subject": 10411, "Ġconsumer": 10412, "ANGE": 10413, "Ġrepeated": 10414, "Send": 10415, "Ġ#[": 10416, "Ġprotocol": 10417, "Ġleads": 10418, "useum": 10419, "Every": 10420, "Import": 10421, "(count": 10422, "Ġchallenges": 10423, "Ġnovel": 10424, "Ġdepart": 10425, "bits": 10426, "Ġ`${": 10427, "oting": 10428, "(\\": 10429, "Ġcreative": 10430, "Ġbuff": 10431, "Ġintroduced": 10432, "usic": 10433, "Are": 10434, "-doc": 10435, "language": 10436, "_cache": 10437, "omething": 10438, "Ġhun": 10439, "aters": 10440, "Intent": 10441, "Ġimplemented": 10442, "ĠCase": 10443, "Children": 10444, "Ġnotification": 10445, "Renderer": 10446, "Objects": 10447, "tl": 10448, "Plugin": 10449, "Ġforg": 10450, "Ġpermit": 10451, "Ġtargets": 10452, "ĠIF": 10453, "Ġtip": 10454, "sex": 10455, "Ġsupports": 10456, "Ġfold": 10457, "photo": 10458, "Ġgoogle": 10459, "Ġsharing": 10460, "Ġgoods": 10461, "vs": 10462, "ĠDan": 10463, "Rate": 10464, "ĠMartin": 10465, "Ġmanner": 10466, "lie": 10467, ".The": 10468, "Internal": 10469, "Mock": 10470, "RIGHT": 10471, "Ġ'{": 10472, "Ġcontrols": 10473, "Mat": 10474, "Ġmand": 10475, "Ġextended": 10476, "Ok": 10477, "Ġembed": 10478, "Ġplanet": 10479, "ĠNon": 10480, "-ch": 10481, ")\",": 10482, "epar": 10483, "Ġbelieved": 10484, "ĠEnvironment": 10485, "ĠFriend": 10486, "-res": 10487, "Ġhandling": 10488, "nic": 10489, "-level": 10490, "scri": 10491, "BE": 10492, "Ġalter": 10493, "[idx": 10494, "Pop": 10495, "cam": 10496, "Ġshipping": 10497, "Ġbattery": 10498, "iddleware": 10499, "MC": 10500, "Ġimpl": 10501, "otation": 10502, "ĠLab": 10503, "ĠGames": 10504, "ray": 10505, "Extra": 10506, "Two": 10507, "ĠLes": 10508, "Â°": 10509, "Ġcharset": 10510, "Ġjourney": 10511, "eting": 10512, "âĶ": 10513, "Ġdin": 10514, "Ġperman": 10515, "Ġsolve": 10516, "Ġlaunched": 10517, "Ġnine": 10518, "Ġsending": 10519, "Ġtelling": 10520, ".password": 10521, "ĠMatrix": 10522, "eric": 10523, "Ġgrab": 10524, ".u": 10525, "ĠLibrary": 10526, "Ġdebt": 10527, "INK": 10528, "Ġfrequency": 10529, ".ad": 10530, "Ġnegot": 10531, "ĠAfrican": 10532, "sender": 10533, "Å¡": 10534, "Global": 10535, "Ġexperts": 10536, "Ġdepending": 10537, "gray": 10538, "Ġjudge": 10539, "Ġsentence": 10540, "losure": 10541, "Ac": 10542, "Ġtrace": 10543, "Edge": 10544, "Ġfriendly": 10545, "Ġconcerned": 10546, "blog": 10547, "Ġclaimed": 10548, "}'": 10549, "integer": 10550, "_tree": 10551, "xi": 10552, "Ġaccepted": 10553, "_one": 10554, "ĠEducation": 10555, "ublished": 10556, "gon": 10557, "appoint": 10558, "outs": 10559, "Ġmining": 10560, "Ġsongs": 10561, "Ġherself": 10562, "Ġgranted": 10563, "Ġpassion": 10564, "ĠLake": 10565, "Ġloan": 10566, "uent": 10567, "chant": 10568, "Ġdetailed": 10569, "except": 10570, "ĠHE": 10571, "Related": 10572, "zt": 10573, "Ġspecifically": 10574, "Static": 10575, "Ġcarried": 10576, "ANS": 10577, "\\\":": 10578, "Created": 10579, "Ġcul": 10580, "]-": 10581, "_api": 10582, "FP": 10583, "Ġsitting": 10584, "Ġ\"\")": 10585, "ĠEqu": 10586, "Ġassault": 10587, "kins": 10588, "ancer": 10589, "ogen": 10590, "Ġvoters": 10591, "ĠProt": 10592, "ãĥ¼": 10593, "bsites": 10594, "oster": 10595, "-menu": 10596, "Ġarms": 10597, "avity": 10598, "Ġvul": 10599, "Ġhousing": 10600, "Ġbear": 10601, "_iter": 10602, "pired": 10603, "Ġmarkets": 10604, "ĠStudent": 10605, "Ġticket": 10606, "Ġmillions": 10607, ")=": 10608, "Ġrecover": 10609, "ĠForce": 10610, "ĠBoth": 10611, "Ġvictim": 10612, "ĠDisc": 10613, "report": 10614, "Ġfourth": 10615, "ĠAssembly": 10616, "/user": 10617, "textarea": 10618, "Ġath": 10619, "Ġ([": 10620, "Ġchannels": 10621, "ĠJustice": 10622, "choice": 10623, "exec": 10624, "emale": 10625, "_le": 10626, "Ġresponsibility": 10627, "ĠTw": 10628, "ICATION": 10629, "Ġfo": 10630, "asts": 10631, "Ġtreated": 10632, "sen": 10633, "ĠVict": 10634, "sumer": 10635, "_BASE": 10636, "Ġast": 10637, "ĠResource": 10638, "ĠStandard": 10639, "ĠPrem": 10640, "updated": 10641, "ivalent": 10642, "Ġassets": 10643, "_temp": 10644, "Ġinterests": 10645, "Ġhardware": 10646, "ĠRom": 10647, "ĠShare": 10648, "ĠTake": 10649, "ĠImages": 10650, "ĠJun": 10651, "Ġliqu": 10652, "Ġworst": 10653, "ymbols": 10654, "Ġdrivers": 10655, "ĠDocument": 10656, "eno": 10657, "ĠTechnology": 10658, "Ġapproved": 10659, "umps": 10660, "Ġsnow": 10661, "formance": 10662, "uits": 10663, "ÙĨ": 10664, "Ġdifferences": 10665, "ĠPs": 10666, "Ġtodo": 10667, "Ġsel": 10668, "urers": 10669, "invalid": 10670, "Ġtweet": 10671, "Ġresearchers": 10672, "ĠRO": 10673, "Ġpel": 10674, "Ġillegal": 10675, "dialog": 10676, "lg": 10677, "Ġhero": 10678, "final": 10679, "Ġpp": 10680, "Ġci": 10681, "Ġsuggested": 10682, "pdf": 10683, "aching": 10684, "ĠRo": 10685, "ĠProperties": 10686, "ĠSi": 10687, "Ġbuying": 10688, "Ġmu": 10689, "Ġlands": 10690, "ifiers": 10691, "ĠFILE": 10692, "ROUP": 10693, "Ġholder": 10694, "ĠSon": 10695, "Ġsympt": 10696, ".route": 10697, ")?": 10698, "Ġfort": 10699, "Ġcasino": 10700, "_category": 10701, "Ġforum": 10702, "prefix": 10703, "apture": 10704, "Tube": 10705, "ems": 10706, "imize": 10707, "aus": 10708, "course": 10709, "ATOR": 10710, "()),": 10711, "Advertis": 10712, "INGS": 10713, "Ġacknow": 10714, "ĠKorea": 10715, "pling": 10716, "Ġworker": 10717, "hal": 10718, "ĠRichard": 10719, "Elements": 10720, "star": 10721, "Ġrelationships": 10722, "Ġcheap": 10723, "ACH": 10724, "ĠXML": 10725, "ĠLouis": 10726, "Ġride": 10727, "Ġchunk": 10728, "[s": 10729, "Ġchosen": 10730, "/(": 10731, "ĠJeff": 10732, "_sl": 10733, "priv": 10734, "ĠCanadian": 10735, "Ġunable": 10736, "Ġnos": 10737, "high": 10738, "Ġlift": 10739, "fun": 10740, "elly": 10741, "_as": 10742, "Ġradi": 10743, "ĠAngeles": 10744, "ĠSpan": 10745, "_instance": 10746, "itors": 10747, "Ġmigration": 10748, "AK": 10749, "Oh": 10750, "Â®": 10751, "ĠGT": 10752, "Ġadvance": 10753, "ĠStyle": 10754, "ection": 10755, "Ñİ": 10756, "pio": 10757, "rog": 10758, "Ġshopping": 10759, "ĠRect": 10760, "OU": 10761, "Ġsubstantial": 10762, "Ġpregn": 10763, "Ġpromote": 10764, "IEW": 10765, "Ġsigns": 10766, "/.": 10767, "Ġletters": 10768, "Board": 10769, "\"\\": 10770, "ĠJones": 10771, "Ġvertex": 10772, "Ġja": 10773, "Ġaffili": 10774, "Ġwealth": 10775, "Ġsignificantly": 10776, "Ġec": 10777, "actual": 10778, "_step": 10779, "mac": 10780, "Ġtransl": 10781, "Ġoch": 10782, "agnostic": 10783, "ĠDuring": 10784, "ĠDEFAULT": 10785, "Ġtill": 10786, "Ġsignature": 10787, "Ġbird": 10788, "ĠOl": 10789, "ĠIr": 10790, "HS": 10791, "avatar": 10792, "Ġelev": 10793, "Ġmt": 10794, "ĠNav": 10795, "Ġrelax": 10796, "Ġplate": 10797, "(date": 10798, "Ġgrade": 10799, "iences": 10800, "High": 10801, "ĠDIS": 10802, "disabled": 10803, "Ġnoise": 10804, "aux": 10805, "ĠUP": 10806, "osa": 10807, "Ġvoc": 10808, "Ġ))": 10809, "ocom": 10810, "Lock": 10811, ",d": 10812, "ĠDraw": 10813, "Ġ\"(": 10814, "Ġvisited": 10815, "ĠâĪ": 10816, "Ġsucceed": 10817, "Ġimpossible": 10818, "aire": 10819, "ĠTurn": 10820, "Ġdish": 10821, "FG": 10822, "Ġsensor": 10823, "ANN": 10824, "aba": 10825, "Ġsurg": 10826, "_an": 10827, "-J": 10828, "-G": 10829, "ĠJob": 10830, "Convert": 10831, "ĠKEY": 10832, "Ġauthors": 10833, "\\r": 10834, "flex": 10835, "Ġsoc": 10836, "Ret": 10837, "Ġsalt": 10838, "ĠClear": 10839, "-danger": 10840, "Ġrooms": 10841, "conv": 10842, ".op": 10843, "ĠArea": 10844, "hen": 10845, "Ġbegins": 10846, "-y": 10847, "Ġexcited": 10848, "Ġignored": 10849, "Ġbonus": 10850, "student": 10851, "ĠMember": 10852, "Ġrelatively": 10853, "ĠLow": 10854, "ĠProdu": 10855, "ateway": 10856, "posure": 10857, "Ġthick": 10858, "aniel": 10859, "ĠCrush": 10860, "Extension": 10861, "Il": 10862, "eed": 10863, "Ġconflict": 10864, ".prevent": 10865, "uv": 10866, "iser": 10867, "Ġwave": 10868, "Mar": 10869, "ĠCommunity": 10870, "iche": 10871, "ĠNothing": 10872, "[m": 10873, "ĠLee": 10874, "riends": 10875, "Ã¨re": 10876, "!!!": 10877, "anz": 10878, ".result": 10879, "ĠSK": 10880, "Ġdemocr": 10881, ".exists": 10882, "\"It": 10883, "razy": 10884, "aser": 10885, "alendar": 10886, "_ass": 10887, "vertex": 10888, "inecraft": 10889, "Warning": 10890, "argo": 10891, "Ġactor": 10892, "ĠInstead": 10893, "ĠUsing": 10894, "Self": 10895, "Ġspeaking": 10896, "ĠParis": 10897, "ĠFood": 10898, "ĠBi": 10899, ".Start": 10900, "ĠIB": 10901, "Ġuniversity": 10902, "ĠHeader": 10903, ".product": 10904, "Copy": 10905, "etc": 10906, "rical": 10907, "Ġ>>>": 10908, "books": 10909, "Ġalgorithm": 10910, "Ġ'__": 10911, "Ġnumerous": 10912, "Share": 10913, "Have": 10914, "Ġrecru": 10915, "Ġprove": 10916, "health": 10917, "Ġdecimal": 10918, "Ġcommission": 10919, "scription": 10920, "xC": 10921, "Ġsummary": 10922, "atted": 10923, "Ġcloser": 10924, "finished": 10925, "ĠWood": 10926, "_fields": 10927, "ku": 10928, "_items": 10929, "Flag": 10930, "Ġconfidence": 10931, "ĠFederal": 10932, "Ġcompat": 10933, "Ġvertical": 10934, "_manager": 10935, "IDE": 10936, ":\",": 10937, "ĠWay": 10938, "ÑĪ": 10939, "Temp": 10940, "ĠSTR": 10941, "ritten": 10942, "Sync": 10943, "ĠAV": 10944, "ĠCEO": 10945, "ĠGuid": 10946, "Ġenvironmental": 10947, "Ġcorresponding": 10948, "Ġjustice": 10949, "ĠJS": 10950, "Ġlived": 10951, "gar": 10952, "ĠGraph": 10953, "ĠStat": 10954, "ĠiPhone": 10955, ".al": 10956, "ĠHD": 10957, "Ġoccur": 10958, "Ġthreshold": 10959, "Ġonclick": 10960, "REG": 10961, "Meta": 10962, "Ġcum": 10963, "Ã«": 10964, "Ġobtained": 10965, "Ġcomplaint": 10966, "Ġeating": 10967, "Ġtar": 10968, "_task": 10969, "(to": 10970, "Pass": 10971, "Ġplastic": 10972, "tility": 10973, "ĠWin": 10974, ".preventDefault": 10975, "pile": 10976, "ĠGar": 10977, "Ġquantity": 10978, "_last": 10979, "Ġgreatest": 10980, "ĠUsed": 10981, "ĠHP": 10982, "riting": 10983, "blue": 10984, "domain": 10985, "Ġscores": 10986, "Normal": 10987, "Then": 10988, "***": 10989, "dist": 10990, "lon": 10991, "Ġhate": 10992, "database": 10993, "Ġpand": 10994, "Ġlogic": 10995, "=false": 10996, "bg": 10997, "ĠConfiguration": 10998, "Ġnur": 10999, "OG": 11000, "Ġmarried": 11001, "Ġdropped": 11002, "Ġregistration": 11003, "ultiple": 11004, "izers": 11005, "shape": 11006, ".copy": 11007, "Ġwearing": 11008, "ĠCath": 11009, "Ġdedicated": 11010, "Ġadvoc": 11011, "ĠFamily": 11012, "Ġstatements": 11013, "ematic": 11014, "ampionship": 11015, "Ġmotiv": 11016, "ĠHave": 11017, "Ġblow": 11018, "Job": 11019, "cert": 11020, "install": 11021, "ĠCOPY": 11022, "embed": 11023, "DIR": 11024, "ĠSpring": 11025, "Ġexhib": 11026, "cdn": 11027, "ĠComment": 11028, "ĠOptional": 11029, ".player": 11030, "ĠDark": 11031, "(pos": 11032, "ĠShould": 11033, "Ġcentre": 11034, "ĠGuard": 11035, "Ġtrouble": 11036, "_service": 11037, "Ġns": 11038, "uling": 11039, "ĠMexico": 11040, "ĠNY": 11041, "mysql": 11042, "Ġlic": 11043, "Mr": 11044, "-fl": 11045, "ĠCustomer": 11046, "idi": 11047, "rible": 11048, "Ġsizes": 11049, "validation": 11050, "ĠJon": 11051, "Nodes": 11052, "Ġfragment": 11053, "Ġspoke": 11054, "Ġwaste": 11055, "Join": 11056, "Ġillustr": 11057, "eli": 11058, "cient": 11059, "Ġaid": 11060, "Ġpassing": 11061, "Ġfaces": 11062, "Shape": 11063, "_Z": 11064, "iti": 11065, "Ġalle": 11066, "Ġrobot": 11067, "ĠĠĠĠĠĠĠĊ": 11068, "ĠSpe": 11069, "Ġreceiving": 11070, "ĠDetails": 11071, "Ġ\")": 11072, "mg": 11073, "Ġcomparison": 11074, "*,": 11075, "ĠFound": 11076, "_session": 11077, "/F": 11078, "Network": 11079, "ders": 11080, "Ġcapture": 11081, "Ġcorre": 11082, "ĠLtd": 11083, "ĠAdv": 11084, "Ġclip": 11085, "Mill": 11086, "ĠProfile": 11087, "Ġendif": 11088, "Ġoblig": 11089, "describe": 11090, ".element": 11091, "riterion": 11092, "LD": 11093, "ered": 11094, "Ġfavour": 11095, "score": 11096, "ĠFilter": 11097, "attributes": 11098, "Ġchecks": 11099, "ĠPlus": 11100, "Ġscientific": 11101, "Ġprivacy": 11102, "Head": 11103, "Ġfeat": 11104, "Ġdegrees": 11105, "ĠPale": 11106, ";\">": 11107, "Ġfilms": 11108, "ĠAudio": 11109, "ĠTag": 11110, "ĠEnergy": 11111, "itar": 11112, "Ġfellow": 11113, "ĠTri": 11114, "cloud": 11115, "ĠPassword": 11116, "ĠDemocrats": 11117, "ĠAcad": 11118, "Ġreb": 11119, "ĠBur": 11120, "readcr": 11121, "Ġhex": 11122, "Console": 11123, "ctl": 11124, "ousel": 11125, "ĠWilliam": 11126, "Ġaz": 11127, "_PORT": 11128, "Ġpractices": 11129, "Ġanywhere": 11130, "ĠPosition": 11131, "iams": 11132, ".username": 11133, "placeholder": 11134, "Ġoder": 11135, "ĠSecretary": 11136, "ĠiT": 11137, "mond": 11138, "events": 11139, "?âĢĿ": 11140, "Ġattached": 11141, "Ġestate": 11142, "Ġfigures": 11143, "Ġsubscri": 11144, ".tag": 11145, "nam": 11146, ".plot": 11147, "noon": 11148, "liament": 11149, "Character": 11150, "Ġwinter": 11151, "ĠVariable": 11152, "Ġtrees": 11153, "Ġproud": 11154, "(V": 11155, "Ġhier": 11156, "ĠEcon": 11157, "Ġvictims": 11158, "Rest": 11159, "iana": 11160, "Ġfake": 11161, "Ġsad": 11162, "Ġble": 11163, "Prot": 11164, "Ġbuttons": 11165, "Ġtelevision": 11166, "Ġlogo": 11167, "extension": 11168, "stein": 11169, "Ġsimp": 11170, "Ġrecorded": 11171, "Ġbrings": 11172, "Ġprincipal": 11173, "Ġfees": 11174, "(source": 11175, "kdir": 11176, "Ġcorrectly": 11177, "fil": 11178, "Ġwel": 11179, "Pair": 11180, "-button": 11181, "scale": 11182, "verify": 11183, "[c": 11184, "Ġ---": 11185, "Ġescape": 11186, "ikes": 11187, "LowerCase": 11188, "ician": 11189, "Ġchapter": 11190, "Ġshadow": 11191, "Ġawesome": 11192, "WE": 11193, "elif": 11194, "Ġlambda": 11195, "Ġdistinct": 11196, "Ġbare": 11197, "-off": 11198, "Ġcolour": 11199, ".appendChild": 11200, "olec": 11201, "aga": 11202, ".fill": 11203, "Ġadj": 11204, ".getItem": 11205, "Short": 11206, "Ġtotally": 11207, "VD": 11208, "ĠTre": 11209, "_ep": 11210, "vements": 11211, "ĠSolution": 11212, "Ġfundament": 11213, "Follow": 11214, "Ġfacility": 11215, "Ġhappening": 11216, "OF": 11217, "Span": 11218, "ĠÂ«": 11219, "iden": 11220, "Ġexceed": 11221, "(parent": 11222, "Ġcp": 11223, "Ġhasn": 11224, "Ġpri": 11225, "Ġconsequ": 11226, "ĠINTO": 11227, "Ignore": 11228, "ĠFuture": 11229, "Ġcarbon": 11230, "ĠSteel": 11231, "fmt": 11232, "okie": 11233, "Ġspl": 11234, "(title": 11235, "-info": 11236, "Ġdeals": 11237, "Ġfixture": 11238, "ea": 11239, "Div": 11240, "Ġtested": 11241, "_return": 11242, "upported": 11243, "ĠCook": 11244, "Ġpaying": 11245, "ĠIll": 11246, "Ġarrested": 11247, "ĠPrime": 11248, "driver": 11249, "Once": 11250, "abb": 11251, "_bytes": 11252, "ĠSets": 11253, "Ġcc": 11254, "Ġshell": 11255, "alo": 11256, "(log": 11257, "ctors": 11258, ")</": 11259, "Ġneighborhood": 11260, "ailability": 11261, "vol": 11262, "Ġyouth": 11263, "Ġtechniques": 11264, "ĠSchema": 11265, "uh": 11266, "Ġrepository": 11267, "imm": 11268, "Ġcookie": 11269, "JS": 11270, "ovies": 11271, ":{": 11272, "Complete": 11273, "Since": 11274, "Ġlaugh": 11275, "enable": 11276, "ĠDoes": 11277, "ĠWalk": 11278, "what": 11279, "kes": 11280, "Ġmultip": 11281, "iments": 11282, "eur": 11283, "Ġvictory": 11284, "Generator": 11285, "ĠMos": 11286, "rovers": 11287, "Ġcompute": 11288, "Ġproviders": 11289, "ĠMedic": 11290, "LP": 11291, "_CONFIG": 11292, "Ġveter": 11293, "sters": 11294, "_window": 11295, "umeric": 11296, "Ġreplaced": 11297, ".root": 11298, "-free": 11299, "-container": 11300, "Ġmatching": 11301, "ĠEditor": 11302, "=${": 11303, "ĠSaf": 11304, "(buffer": 11305, ".edu": 11306, "ĠNFL": 11307, "aya": 11308, "Ġdogs": 11309, "Ġdesire": 11310, "ĠMiddle": 11311, "Cart": 11312, "Theme": 11313, "Ġmob": 11314, "Ġdisplayed": 11315, "igit": 11316, "Ġadults": 11317, "\"\"\"": 11318, "Ġdelivered": 11319, "visible": 11320, "ĠGO": 11321, "scroll": 11322, "Ġassigned": 11323, "ĠBool": 11324, "Ġwp": 11325, "Ġcombat": 11326, "ĠHaw": 11327, ".-": 11328, "Ġsupporting": 11329, "ircraft": 11330, "Ġspin": 11331, "ĠCR": 11332, "à¥": 11333, "Ġspaces": 11334, "?,": 11335, "ĠSyria": 11336, "Ġpatterns": 11337, "-box": 11338, "Ġframework": 11339, "Ġteaching": 11340, "ARNING": 11341, "_keys": 11342, "Ġtables": 11343, "inations": 11344, "-weight": 11345, "radio": 11346, "ĠPac": 11347, ".CharField": 11348, "ring": 11349, "Ġquote": 11350, "anna": 11351, "Ġcream": 11352, "Ġmachines": 11353, "-k": 11354, "Ġstim": 11355, "ĠStock": 11356, "rick": 11357, "Ġimportance": 11358, "rx": 11359, "ÙĪ": 11360, "Ġstroke": 11361, "agra": 11362, "Ġtaste": 11363, "Thanks": 11364, "ĠRequired": 11365, "ova": 11366, "Media": 11367, "(base": 11368, "posts": 11369, "Checked": 11370, "Ġinterrupt": 11371, "python": 11372, "pair": 11373, "Ġcircle": 11374, "Ġiniti": 11375, "_stream": 11376, "Ġcompreh": 11377, "learn": 11378, "Public": 11379, "Ġhumans": 11380, "Ġbringing": 11381, "ographic": 11382, "_layer": 11383, "-like": 11384, "Ġvotes": 11385, "Ġdesired": 11386, "Mask": 11387, "Ġrelation": 11388, ".Instance": 11389, "Help": 11390, "Ġinspir": 11391, "ĠMono": 11392, "ometimes": 11393, "ĠbackgroundColor": 11394, "Ġrotation": 11395, "Ġmari": 11396, "/test": 11397, "INSERT": 11398, "Star": 11399, "phy": 11400, "Ids": 11401, "Ġincreases": 11402, "_close": 11403, "aza": 11404, "TEXT": 11405, "ĠÃ¤": 11406, "ĠVan": 11407, "Ġlights": 11408, "ĠGuide": 11409, "Ġdates": 11410, "aman": 11411, "Ġpaths": 11412, "dx": 11413, "Ġreaction": 11414, "ĠBeach": 11415, "Environment": 11416, "interest": 11417, "Ġminister": 11418, "Ġreaders": 11419, "Ġdomestic": 11420, "Ġfiled": 11421, "City": 11422, "Ġmapping": 11423, "ĠDES": 11424, "Ġrepair": 11425, "tics": 11426, "ixture": 11427, "zo": 11428, "ĠCarolina": 11429, "ĠDer": 11430, "Ġgest": 11431, "Ġhist": 11432, "resources": 11433, "Ġorphan": 11434, "ĠInvest": 11435, "ĠRoman": 11436, "Ġcultural": 11437, "feature": 11438, "pts": 11439, "bt": 11440, "Ġdot": 11441, "Ġdiam": 11442, "uspend": 11443, "_access": 11444, "Ġsurprise": 11445, "abil": 11446, "Ġvirt": 11447, "Ġbomb": 11448, "aron": 11449, "Ġvast": 11450, "Real": 11451, "epend": 11452, "icted": 11453, "Ġpicked": 11454, "ĠFL": 11455, "ĠRepublicans": 11456, ".zeros": 11457, "sup": 11458, "Microsoft": 11459, "services": 11460, "agic": 11461, "iveness": 11462, "Ġpdf": 11463, "Ġroles": 11464, "ras": 11465, "Ġindustrial": 11466, "Ġfacilities": 11467, "Ġni": 11468, "Ġba": 11469, "Ġcls": 11470, "Customer": 11471, "Ġimagine": 11472, "Ġexports": 11473, "Ġmad": 11474, "Ġfro": 11475, "hus": 11476, "Ġcommittee": 11477, "ìĿ´": 11478, ",x": 11479, "Ġdivision": 11480, "(client": 11481, "optional": 11482, "ĠPhys": 11483, "ingu": 11484, "Ġsync": 11485, "ĠNa": 11486, "OLUM": 11487, "Ġidentifier": 11488, "owed": 11489, "Ġextent": 11490, "Ġhur": 11491, "VA": 11492, "clar": 11493, "Ġedges": 11494, "Ġindeed": 11495, "ĠNight": 11496, "Ġreporting": 11497, "Ġencounter": 11498, "Ġkinds": 11499, "_pred": 11500, "Ġconsidering": 11501, ".(": 11502, "Ġprotein": 11503, "Typ": 11504, "gricult": 11505, "ĠBall": 11506, "ĠEss": 11507, "ĠRub": 11508, "ulp": 11509, "ĠĠĠĠĠĠĠĠĠĠĠĠĠĠĠĠĠĠĠĠĠĠĠĠĠĠĠĠĠĠĠĠĠĠĠĠĠĠĠĠ": 11510, "itud": 11511, "Ġspell": 11512, "ĠJoe": 11513, "_host": 11514, "itan": 11515, "Ġmatters": 11516, "Ġemergency": 11517, "uated": 11518, "ĠChat": 11519, "={'": 11520, "arker": 11521, "iper": 11522, "Ġscheme": 11523, "Ġ*(": 11524, "ceiver": 11525, ".column": 11526, "Ġmarked": 11527, "Ġbodies": 11528, "Gap": 11529, "ĠPOST": 11530, "Ġcorporate": 11531, "Ġdimension": 11532, "Ġcontrast": 11533, "erview": 11534, "ĠERROR": 11535, "Ġcapable": 11536, "Ġadvertising": 11537, "urchase": 11538, "ĠPA": 11539, "ĠFrancisco": 11540, "Ġfacing": 11541, "ãĢĮ": 11542, "git": 11543, "Ġbeer": 11544, "Ġsky": 11545, "download": 11546, "ĠCur": 11547, "mc": 11548, "anny": 11549, ".floor": 11550, "Ġcriteria": 11551, "ĠparseInt": 11552, "Ġaspect": 11553, "Ġbundle": 11554, "Could": 11555, "Ġtank": 11556, "-id": 11557, "Ġhurt": 11558, "Ġbroadcast": 11559, "OKEN": 11560, "ownt": 11561, "Cap": 11562, "Ġalcohol": 11563, "ĠColl": 11564, "ĠHelper": 11565, "ĠAf": 11566, ".method": 11567, "Ġplanned": 11568, "pler": 11569, "ĠSite": 11570, "Ġresc": 11571, "oment": 11572, "ĠJavaScript": 11573, "SERVER": 11574, "eres": 11575, "(\",": 11576, "ifi": 11577, "Ġparking": 11578, "Ġisland": 11579, "Ġsister": 11580, "Constraints": 11581, "ĠAust": 11582, "dim": 11583, "_points": 11584, "Ġgap": 11585, "_active": 11586, "ĠPO": 11587, "Bag": 11588, "-scale": 11589, "lambda": 11590, "rule": 11591, "Ġowned": 11592, "ĠMedical": 11593, "Ġsolar": 11594, "Ġresulting": 11595, "Ġestimated": 11596, "Ġimproved": 11597, "Duration": 11598, "employee": 11599, "$.": 11600, "Actions": 11601, "Like": 11602, ",(": 11603, ".Open": 11604, "Ġpixel": 11605, "Ġadapter": 11606, "Ġrevenue": 11607, "ogram": 11608, "ĠLA": 11609, "ĠMachine": 11610, "ĠØ§": 11611, "Ġfle": 11612, "Ġbike": 11613, "Ġdisp": 11614, "Ġconsistent": 11615, "gender": 11616, "ĠThose": 11617, "perience": 11618, ".play": 11619, "Ġrush": 11620, "Ġaxios": 11621, "Ġneck": 11622, "_first": 11623, "CB": 11624, "ĠWidget": 11625, "Ġseq": 11626, "har": 11627, "Ġhits": 11628, "ĠâĤ¬": 11629, "Ġcontained": 11630, "rient": 11631, "water": 11632, "ĠVirginia": 11633, "ĠArm": 11634, "Ġ./": 11635, "Â»": 11636, "_root": 11637, "Ġassistance": 11638, "[],": 11639, "sync": 11640, "Ġveget": 11641, "escape": 11642, "icer": 11643, "boost": 11644, "ĠFloat": 11645, "-W": 11646, "Ġboys": 11647, "Ġwedding": 11648, "Ġagents": 11649, "=\"_": 11650, "ĠArmy": 11651, "Ġhint": 11652, "vision": 11653, "Ġtech": 11654, "ĠConnect": 11655, "Ġlegend": 11656, "ĠBet": 11657, "Subject": 11658, "Ġlit": 11659, "Remove": 11660, "ĠFinal": 11661, "pearance": 11662, "ĠiTunes": 11663, "Ġparticipants": 11664, "ĠPython": 11665, "Ġbusy": 11666, "iel": 11667, "ĠClose": 11668, "Img": 11669, "ĠCorporation": 11670, "timestamp": 11671, "Ġextend": 11672, "Ġwebsites": 11673, "Ġpossibility": 11674, "Ġmeat": 11675, "Ġrepresentation": 11676, ".apply": 11677, "ĠValley": 11678, "ĠSuccess": 11679, "Hi": 11680, "Ġnob": 11681, "geo": 11682, "Ġturning": 11683, "Ġfabric": 11684, "Ġperspective": 11685, "ĠSn": 11686, "Thank": 11687, "Ġfacts": 11688, "Ġunt": 11689, "-end": 11690, "ĠJOIN": 11691, "ĠHen": 11692, "ĠInfo": 11693, "Ġconducted": 11694, "Ġwine": 11695, "John": 11696, "ĠAge": 11697, "ounded": 11698, "Ġrealize": 11699, "Ġ];": 11700, "Ġsubsequ": 11701, ",m": 11702, "(User": 11703, "iano": 11704, "Ġaccompl": 11705, "isp": 11706, ".std": 11707, "ĠBed": 11708, ".setAttribute": 11709, "BR": 11710, "keep": 11711, "ĠALL": 11712, "Ġisol": 11713, "amma": 11714, "Package": 11715, "Ġoccasion": 11716, "-success": 11717, "strip": 11718, "istribution": 11719, "Colors": 11720, "aler": 11721, "Ġtid": 11722, "ĠLED": 11723, "ĠLinked": 11724, "ĠCart": 11725, "Ġkilling": 11726, "ĠPHP": 11727, "fection": 11728, "Ġinstances": 11729, "cv": 11730, "\"/>": 11731, "Ġsf": 11732, "Ġtaxes": 11733, "_location": 11734, "ĠBitcoin": 11735, "uable": 11736, "rank": 11737, "ignore": 11738, "track": 11739, "ÐºÐ°": 11740, "Ġshouldn": 11741, "ĠOP": 11742, "Ġkm": 11743, "Ġhelper": 11744, "_head": 11745, "ĠWhether": 11746, "oco": 11747, "Ġstatistics": 11748, "Ġbeauty": 11749, "Ġtog": 11750, "tip": 11751, "ëĭ¤": 11752, "Ġcsv": 11753, "weak": 11754, "Ġlikes": 11755, "Ġrepeat": 11756, "Ġapartment": 11757, "Ġemph": 11758, "Ġvit": 11759, "Even": 11760, "uten": 11761, "Ġcircumstances": 11762, "bian": 11763, "Ġsugar": 11764, "Windows": 11765, "ìŀ": 11766, "Ġobserved": 11767, "/data": 11768, "Ġcalendar": 11769, "Ġstrike": 11770, "ĠRES": 11771, "_sc": 11772, "orem": 11773, "(z": 11774, "power": 11775, "etect": 11776, "ĠSat": 11777, ".description": 11778, "Ġgang": 11779, "ĠSports": 11780, "ongs": 11781, "ĠBundle": 11782, ".sum": 11783, "once": 11784, "Ġaccused": 11785, "Ġexplore": 11786, "Ġapproximately": 11787, "Ġlosing": 11788, "thesis": 11789, "ĠFund": 11790, "Ġdiagn": 11791, "properties": 11792, "Ġcnt": 11793, "cedure": 11794, "Ġgrant": 11795, "sock": 11796, ".innerHTML": 11797, "ĠCONFIG": 11798, "UND": 11799, "Ġglob": 11800, "Ġdire": 11801, "uffle": 11802, "Ġauthentic": 11803, "Ġdecade": 11804, "ĠImport": 11805, "Ġoriginally": 11806, "ĠjQuery": 11807, "Ġindicate": 11808, "Ġourselves": 11809, "Sw": 11810, "enerate": 11811, "Ġbasically": 11812, "ĠHom": 11813, "ĠBritain": 11814, "ĠKar": 11815, ".stop": 11816, "Ġmodal": 11817, "isi": 11818, "Ġsuggests": 11819, "Ġdtype": 11820, "Ġtur": 11821, "bf": 11822, "Ġconnections": 11823, "ĠBefore": 11824, "isted": 11825, "mouse": 11826, "Ġpulled": 11827, "Ġlegislation": 11828, "Ġforth": 11829, "pad": 11830, "ego": 11831, ".Now": 11832, "Ġexciting": 11833, "Ġcompr": 11834, "Ġshares": 11835, "Ġrig": 11836, "green": 11837, "Ġenumerate": 11838, "Auto": 11839, "icator": 11840, "ĠRay": 11841, "asse": 11842, "Ġholiday": 11843, "Ġnullable": 11844, "gun": 11845, "_details": 11846, "Ġwrapper": 11847, "seq": 11848, "ĠYoung": 11849, "juana": 11850, "Ġ\"__": 11851, "license": 11852, "serve": 11853, "^(": 11854, "iders": 11855, "ropdown": 11856, "'S": 11857, "pin": 11858, "(token": 11859, "Ġreasonable": 11860, "ampion": 11861, "ĠSociety": 11862, "erves": 11863, "rad": 11864, "ĠFox": 11865, "Ġwheel": 11866, "Ġvary": 11867, "Ġproxy": 11868, "ĠAnother": 11869, "ĠPen": 11870, "Ġchecking": 11871, "manager": 11872, "Origin": 11873, "ugs": 11874, "oir": 11875, "Ġexpressed": 11876, "Ġmoder": 11877, "Ġagencies": 11878, "-hidden": 11879, "iously": 11880, "ĠRod": 11881, "Ġsole": 11882, "Med": 11883, "Ġpc": 11884, "bal": 11885, "Example": 11886, "ĠSale": 11887, "Ġstrip": 11888, "ĠComp": 11889, "Ġpresidential": 11890, "Most": 11891, "putation": 11892, "ĠFour": 11893, "Ġenforcement": 11894, "Ø¯": 11895, "ĠGeorg": 11896, "weights": 11897, "/l": 11898, "Ġaggress": 11899, "Ġdrawing": 11900, "andy": 11901, "-j": 11902, "aka": 11903, "href": 11904, "Ġteachers": 11905, "_Q": 11906, "(it": 11907, "ĠMB": 11908, "Ġtemporary": 11909, "stra": 11910, "(label": 11911, "oup": 11912, "Ġtopics": 11913, "Ġportion": 11914, "idos": 11915, "ĠJewish": 11916, "Ġrecovery": 11917, "Ġstands": 11918, "#[": 11919, "Ġafternoon": 11920, "ĠArticle": 11921, "_att": 11922, "Ġexplan": 11923, "ĠPak": 11924, "+(": 11925, "lag": 11926, "Ġdisk": 11927, "Ġcontrovers": 11928, "asp": 11929, "Ġwie": 11930, "ĠAustralian": 11931, "ĠYouTube": 11932, "Attr": 11933, "contains": 11934, "duce": 11935, "ĠMatt": 11936, "atern": 11937, "Ġvolunte": 11938, "Ġnewsp": 11939, "VP": 11940, "Ġdelegate": 11941, "Ġaccurate": 11942, "ĠExample": 11943, "%,": 11944, "ĠDaily": 11945, "Ġcabin": 11946, "ĠSW": 11947, "Ġlimits": 11948, "kip": 11949, "Ġarmy": 11950, "Ġending": 11951, "Ġboss": 11952, "ĠDialog": 11953, "Also": 11954, "=\"#\"": 11955, "ordan": 11956, "rowse": 11957, "-min": 11958, "_loc": 11959, "UX": 11960, "Ġdevelopers": 11961, "Ġaccuracy": 11962, "Ġmaintenance": 11963, "Ġheav": 11964, "Ġfilters": 11965, "Ġnarr": 11966, "ĠEmp": 11967, "ORDER": 11968, "ĠMobile": 11969, ".output": 11970, "Material": 11971, "uma": 11972, "Ġconsumers": 11973, "shift": 11974, "Ġmini": 11975, "collection": 11976, "Ġkan": 11977, "History": 11978, "Ġbench": 11979, "());": 11980, "itories": 11981, "Ġcrowd": 11982, "_call": 11983, "Ġpowers": 11984, "-E": 11985, "Ġdismiss": 11986, "Ġtalks": 11987, "ĠChannel": 11988, "forward": 11989, "_control": 11990, "/src": 11991, "iest": 11992, "Ġbeta": 11993, "ĠApi": 11994, "Ġeffectively": 11995, "Camera": 11996, "sd": 11997, "ussy": 11998, "Dict": 11999, "ĠEffect": 12000, "ibilities": 12001, "Ġreturning": 12002, "ĠFar": 12003, "Ġ'')": 12004, "Ġmodules": 12005, "ilation": 12006, "Ġ(%": 12007, "Ġstorm": 12008, "onna": 12009, "ĠEXP": 12010, "Ġspons": 12011, "Ġdispl": 12012, "fall": 12013, "etrics": 12014, "Ġhandles": 12015, "TL": 12016, "_amount": 12017, "owa": 12018, "brand": 12019, "ĠTool": 12020, "Ġusual": 12021, "crement": 12022, "adium": 12023, "stock": 12024, "Ġserving": 12025, "ĠBon": 12026, "Ġlinear": 12027, "ĠTarget": 12028, "ĠRadio": 12029, "HL": 12030, "Shader": 12031, "omatic": 12032, "agues": 12033, "inity": 12034, "diff": 12035, "_iterator": 12036, "quot": 12037, "Ġsymptoms": 12038, "[_": 12039, "ĠBul": 12040, "ĠFeb": 12041, "undo": 12042, "_account": 12043, "tras": 12044, "UserId": 12045, "ĠPenn": 12046, "ĠSupreme": 12047, "}>": 12048, "userId": 12049, "ĠKim": 12050, "Ġga": 12051, "Ġartists": 12052, "ĠAbstract": 12053, "okemon": 12054, "Ġham": 12055, "oval": 12056, "Ġcha": 12057, "aten": 12058, "Fixed": 12059, "Ġvulner": 12060, "ĠParameters": 12061, "quantity": 12062, "Ġya": 12063, "Ġsoul": 12064, "transaction": 12065, "Ġsolo": 12066, "Ġpairs": 12067, "ĠGre": 12068, "_word": 12069, "ĠCC": 12070, "Ġgi": 12071, "zie": 12072, "Ġscheduled": 12073, "rotation": 12074, "gypt": 12075, "ulous": 12076, "ĠEll": 12077, "<!": 12078, "lp": 12079, "aha": 12080, "Copyright": 12081, "Ġdram": 12082, "Ġdiagram": 12083, "ĠMem": 12084, "Ġgarden": 12085, "Comp": 12086, "Ġattempts": 12087, "uffix": 12088, "Ġphilosoph": 12089, "_rel": 12090, "anto": 12091, ".Json": 12092, "ĠTele": 12093, "_local": 12094, "_send": 12095, "Ġaspects": 12096, "ìĹ": 12097, "IBLE": 12098, "Ġrail": 12099, "Ġwidely": 12100, "ashed": 12101, "iar": 12102, "inf": 12103, "upper": 12104, "django": 12105, "_results": 12106, "issing": 12107, "Ġequivalent": 12108, "Ġty": 12109, "Ġpotentially": 12110, "Advertisement": 12111, "ĠRecord": 12112, "resentation": 12113, "ounding": 12114, "Ġreligion": 12115, "Ġconsc": 12116, "ĠLim": 12117, ".am": 12118, "Html": 12119, "_spec": 12120, "orted": 12121, "_shape": 12122, "Ġkeeps": 12123, "ĠLoc": 12124, "ori": 12125, "ĠTEST": 12126, "unicip": 12127, "Ġregions": 12128, "Ġbelieves": 12129, "/en": 12130, "posite": 12131, "{'": 12132, "prepare": 12133, "sample": 12134, "ĠWilliams": 12135, "ĠAndrew": 12136, ".active": 12137, "Ġlayers": 12138, "azy": 12139, "ĠKn": 12140, "Ġacid": 12141, "ĠAsia": 12142, "Ġexcess": 12143, "Ġkeyboard": 12144, "ensus": 12145, "Ġcrew": 12146, "Ġmissed": 12147, "master": 12148, "ĠWild": 12149, "Ġnewly": 12150, "Ġwinner": 12151, "Ġstub": 12152, "icode": 12153, ".move": 12154, "Domain": 12155, "ĠSar": 12156, "Ġforest": 12157, "LED": 12158, "claimer": 12159, ".exit": 12160, "ĠWindow": 12161, "Ġresistance": 12162, "ĠCHECK": 12163, "(\"-": 12164, "ĠRyan": 12165, "Ġpipe": 12166, "Ġcoast": 12167, "DEF": 12168, "_off": 12169, "exit": 12170, "Ġultimately": 12171, "imitive": 12172, "ĠKeep": 12173, "Ġhistorical": 12174, "Ġanyway": 12175, "ĠJackson": 12176, "ocker": 12177, "ERN": 12178, "yntax": 12179, "ERY": 12180, "isms": 12181, "Ġoccurs": 12182, "AE": 12183, "/img": 12184, "Ġyesterday": 12185, "Ġtiny": 12186, "Ġproc": 12187, "Ġalive": 12188, ".th": 12189, "earing": 12190, "abc": 12191, "Ð½Ð¾": 12192, "Ġnoticed": 12193, "odigo": 12194, "Ġedition": 12195, "Ġyards": 12196, "Ġverbose": 12197, "ĠMid": 12198, "Ġglo": 12199, "Ġbuildings": 12200, "Ġze": 12201, "ĠIter": 12202, "Ġtube": 12203, "ĠPot": 12204, "bridge": 12205, "ĠScript": 12206, "ĠModule": 12207, "Ġvacc": 12208, "Ġinstallation": 12209, "vy": 12210, "ĠSM": 12211, ".total": 12212, "bat": 12213, "Ġfinds": 12214, "Ġatmos": 12215, "izard": 12216, "Ġreplacement": 12217, "licated": 12218, "apis": 12219, "Ġlogged": 12220, "ĠLeft": 12221, "Gui": 12222, "tm": 12223, "Pad": 12224, "Ġhousehold": 12225, "Ġrele": 12226, "Ġproposal": 12227, "Ġinfrastructure": 12228, "/html": 12229, "Ġads": 12230, "izza": 12231, "Ġmg": 12232, "ctrine": 12233, "<html": 12234, "-image": 12235, "Ġattorney": 12236, "(',": 12237, "Ġcann": 12238, "Ġprintln": 12239, "oose": 12240, "Ġyellow": 12241, ".exp": 12242, "payment": 12243, "away": 12244, "Ġopposition": 12245, "ĠAgain": 12246, "ĠHandle": 12247, "Ġexclusive": 12248, "inar": 12249, "Ã©r": 12250, "emporary": 12251, "Ġreact": 12252, "pipe": 12253, "cz": 12254, "Ġlargely": 12255, "Ġdiss": 12256, "axy": 12257, "esis": 12258, "ĠRen": 12259, "Ġcorn": 12260, "days": 12261, "Ġfruit": 12262, "Insert": 12263, "_enc": 12264, "Est": 12265, "ĠLuc": 12266, "parameters": 12267, "express": 12268, "_profile": 12269, "Unknown": 12270, "Ġrevolution": 12271, "_require": 12272, "Ġuniform": 12273, "ĠPack": 12274, "lar": 12275, "Ġdepends": 12276, "Validation": 12277, "confirm": 12278, "Owner": 12279, "Ġtrib": 12280, "het": 12281, "ĠIde": 12282, "ansas": 12283, "Language": 12284, "uet": 12285, "ĠPo": 12286, "ĠSteve": 12287, "Ġcontest": 12288, "_DEFAULT": 12289, "Ġapparently": 12290, "REEN": 12291, "Ġfrequently": 12292, "Ġtradition": 12293, "ocolate": 12294, "SI": 12295, "ĠArgument": 12296, "Focus": 12297, "ĠLayout": 12298, "Ġdx": 12299, "Ġgenerator": 12300, "ĠWait": 12301, "Policy": 12302, "lights": 12303, "Py": 12304, "Ġbedroom": 12305, "eda": 12306, "raid": 12307, "Ġancient": 12308, "Ġpump": 12309, "Ġdw": 12310, "Ġspecify": 12311, "ĠFBI": 12312, "Ġremark": 12313, "lymp": 12314, "antee": 12315, "Upload": 12316, "ernet": 12317, "inent": 12318, "ĠRender": 12319, "dm": 12320, "ĠMemory": 12321, "rich": 12322, "ĠTools": 12323, "Ġkne": 12324, "Ġperm": 12325, "bad": 12326, "Ġdinner": 12327, ".reset": 12328, "Feature": 12329, "Ġreferred": 12330, ".classList": 12331, "Ġneither": 12332, "Ġcounty": 12333, "Ġ\"{": 12334, "Ġtack": 12335, "Ġrenew": 12336, "``": 12337, "Ġbrown": 12338, "Errors": 12339, "erto": 12340, "Ġsustain": 12341, "SO": 12342, "letes": 12343, "ĠInvalid": 12344, "Ġenemies": 12345, "unge": 12346, "Ġexistence": 12347, "erra": 12348, "utorial": 12349, "pay": 12350, "charge": 12351, "ĠIre": 12352, "atest": 12353, "Ġexplos": 12354, "Ġfired": 12355, "NER": 12356, "ĠTy": 12357, "icion": 12358, "Uri": 12359, "Ġobviously": 12360, "ĠColum": 12361, "Ġ'+": 12362, "ĠDevice": 12363, "-related": 12364, "ĠLesser": 12365, "Serializer": 12366, "Ġupgrade": 12367, "Light": 12368, "Ġcodes": 12369, "Ġwrites": 12370, "food": 12371, "Ġtracks": 12372, "Ġseriously": 12373, "cht": 12374, "Ġimmediate": 12375, "Ġscientists": 12376, "Ġ{$": 12377, "_ne": 12378, "Ġaccommod": 12379, "ĠHarry": 12380, "Ġsight": 12381, "ersistent": 12382, "-input": 12383, "Ġcoordinates": 12384, "Â·": 12385, "Welcome": 12386, ".conf": 12387, "Ġgrew": 12388, "Ġbold": 12389, "ĠCPU": 12390, "(my": 12391, "Ġperfectly": 12392, "Ġmoments": 12393, "ĠMovie": 12394, "-data": 12395, "ystal": 12396, "_WIDTH": 12397, "ĠScreen": 12398, "Ġdisap": 12399, "Ġreduction": 12400, "Ġgeneric": 12401, "Ġdy": 12402, "aller": 12403, "Ġcurl": 12404, "ĠBody": 12405, "Ġbanks": 12406, ",t": 12407, "avg": 12408, "Ġevil": 12409, "Ġmanufacturer": 12410, "Ġreceiver": 12411, "Columns": 12412, "Ġingredients": 12413, "ques": 12414, "Ġslowly": 12415, "ĠTown": 12416, "ĠCell": 12417, "ĠAlert": 12418, "Ã¤r": 12419, "âĢľThe": 12420, "ĠMD": 12421, "Ġcourses": 12422, "athan": 12423, "occ": 12424, "ĠSER": 12425, "esign": 12426, "Addr": 12427, "=['": 12428, "]}": 12429, "ĠInstagram": 12430, "ĠBorder": 12431, "oda": 12432, "Ġhall": 12433, "Ġrum": 12434, "Ġsaving": 12435, "_down": 12436, "Random": 12437, "Ġopposite": 12438, "Room": 12439, "YES": 12440, "Ġenjoyed": 12441, "Clear": 12442, "âĢĺ": 12443, "ĠFord": 12444, "onic": 12445, "\"])": 12446, "_auth": 12447, "Ġsufficient": 12448, "LES": 12449, "Ġphen": 12450, "Ġoh": 12451, "_csv": 12452, "Ġroutine": 12453, "aylor": 12454, "Ġbasket": 12455, "rypted": 12456, "Sim": 12457, "ĠShop": 12458, "Ġstudio": 12459, "atos": 12460, "(W": 12461, "oga": 12462, "Ġshr": 12463, "Ġsick": 12464, "Another": 12465, "Ġdoors": 12466, "ĠTHREE": 12467, ".order": 12468, "razil": 12469, "Ġmaps": 12470, "translate": 12471, "Ġnearby": 12472, "Ġnach": 12473, "batch": 12474, "Ġlux": 12475, "ashes": 12476, "angers": 12477, "âĢ¦âĢ¦": 12478, "Ġacts": 12479, "inv": 12480, "Ġretain": 12481, "utch": 12482, "Ġknowing": 12483, "Ġrepresenting": 12484, "NOT": 12485, "png": 12486, "Contract": 12487, "Ġtrick": 12488, "ĠEdition": 12489, "uplicate": 12490, "Ġcontrolled": 12491, "javascript": 12492, "Ġmilk": 12493, "White": 12494, "Sequence": 12495, "awa": 12496, "Ġdiscussed": 12497, "ĠBush": 12498, "ĠYES": 12499, "tags": 12500, "Ġtact": 12501, "Ġsid": 12502, "$$": 12503, "ĠEnum": 12504, "Ġframes": 12505, "});": 12506, "Ġregul": 12507, "Region": 12508, "fff": 12509, "Ġcro": 12510, "(com": 12511, "Student": 12512, "Ġdisappoint": 12513, "Counter": 12514, "Ġbutter": 12515, "ĠHa": 12516, "ĠDigital": 12517, "Ġbid": 12518, "ingers": 12519, "ĠCountry": 12520, "/k": 12521, "dating": 12522, ":#": 12523, "ĠDATA": 12524, "ynchron": 12525, "ollywood": 12526, "ipient": 12527, "oft": 12528, "docs": 12529, "Ġsynchron": 12530, "Ġformed": 12531, "ruption": 12532, "Ġvillage": 12533, "Ġknock": 12534, "ocs": 12535, "\"{": 12536, "_flags": 12537, "Ġtransactions": 12538, "Ġhabit": 12539, "ĠJe": 12540, "eden": 12541, "Ġaircraft": 12542, "irk": 12543, "ĠAB": 12544, "Ġfairly": 12545, "Ġinstrument": 12546, "(min": 12547, "Ġot": 12548, "Ġcolle": 12549, "=s": 12550, "timeout": 12551, "Ġids": 12552, "ĠMatch": 12553, "zero": 12554, "Ġnetworks": 12555, ".gov": 12556, "Ġintel": 12557, "Ġsections": 12558, "outine": 12559, "ĠBlog": 12560, "Ġbridge": 12561, "ĠCV": 12562, "convert": 12563, "ĠBern": 12564, "eval": 12565, "(set": 12566, "tool": 12567, "Ġpayments": 12568, "Ġconcrete": 12569, "Ġelig": 12570, "Ġacceler": 12571, "Ġhole": 12572, "_o": 12573, "TEGER": 12574, "Ġgraphics": 12575, "Own": 12576, "Formatter": 12577, "onder": 12578, "Ġpackages": 12579, "/a": 12580, "ĠKnow": 12581, "Ġduty": 12582, "Wait": 12583, "_record": 12584, "[t": 12585, "Mesh": 12586, "Ġongoing": 12587, "Ġtan": 12588, "Ġinterpret": 12589, "asters": 12590, "Ġlegs": 12591, "-file": 12592, "ĠSaint": 12593, "Ġprohib": 12594, "Ġblo": 12595, "otic": 12596, "_exp": 12597, "ĠStop": 12598, "aping": 12599, "Ġease": 12600, "ponsive": 12601, "strcmp": 12602, "oli": 12603, "Ġextreme": 12604, "Ġprofessor": 12605, "Images": 12606, "Ġaddresses": 12607, "plemented": 12608, "Ġincorpor": 12609, "ĠuseEffect": 12610, "_OF": 12611, "ĠDa": 12612, "IRST": 12613, "Ġdiscrim": 12614, "Ġcompens": 12615, "gregate": 12616, "ancell": 12617, "aches": 12618, "ĠCriteria": 12619, "Ġsecondary": 12620, "Watch": 12621, "ĠSem": 12622, "ĠMcC": 12623, "Ġacademic": 12624, "Upper": 12625, "utral": 12626, "ĠDog": 12627, "aded": 12628, "Validator": 12629, "Ġderived": 12630, "ĠsetTimeout": 12631, "ĠKen": 12632, "Ġtypical": 12633, "ĠBob": 12634, "Ġbounds": 12635, "ĠSeason": 12636, "Ġcrazy": 12637, "ĠĠĠĠĠĠĠĠĠĠĠĠĠĠĠĠĠĠĠĠĠĠĠĠĠĠĠĠĠĠĠĠĠĠĠĠĠĠĠĠĠĠ": 12638, "-router": 12639, "ĠMir": 12640, "Ġemotional": 12641, ",v": 12642, "cn": 12643, "/st": 12644, "onom": 12645, "Ġdeclared": 12646, ">.": 12647, "ailing": 12648, "Ġnormally": 12649, "evin": 12650, "likely": 12651, "Ġpointed": 12652, "ĠStack": 12653, "Ġwalls": 12654, "mean": 12655, "Ġlistening": 12656, "adv": 12657, "Ġswap": 12658, "IFT": 12659, "Øª": 12660, ".argv": 12661, "uls": 12662, "notations": 12663, "Ġemails": 12664, "ĠUkr": 12665, "asta": 12666, "ĠThus": 12667, "ĠStone": 12668, "Ġappeal": 12669, ".âĢĻ": 12670, "Ġregulations": 12671, "Preferences": 12672, "ĠPhone": 12673, "ulf": 12674, "ĠDR": 12675, "Ġtechnologies": 12676, "Ġparagraph": 12677, "Ġnecessarily": 12678, "Ġunderst": 12679, "Ġfinger": 12680, "pressed": 12681, "-by": 12682, "iffer": 12683, "watch": 12684, "ĠBa": 12685, "AIM": 12686, "Ġweights": 12687, "ĠRon": 12688, "[self": 12689, "periment": 12690, "xic": 12691, "ĠCamera": 12692, "aurant": 12693, "Prefix": 12694, "Ġinstitutions": 12695, "Ġexposure": 12696, "pattern": 12697, "ĠLinux": 12698, "redient": 12699, "ArgumentException": 12700, "ĠChief": 12701, "\"},": 12702, "Ġelectronic": 12703, "rong": 12704, "erd": 12705, "rait": 12706, "/',": 12707, "ĠOhio": 12708, "Ġcontinuing": 12709, "ĠTemplate": 12710, "ĠEth": 12711, "/env": 12712, "%.": 12713, "arters": 12714, "ĠTABLE": 12715, "perature": 12716, "progress": 12717, "Pres": 12718, "ê°": 12719, "implementation": 12720, "Ġstreets": 12721, "News": 12722, "###": 12723, ":/": 12724, "Ġcutting": 12725, "ressed": 12726, "lab": 12727, "Ġcausing": 12728, "bra": 12729, "illy": 12730, "pletion": 12731, "will": 12732, "Ġstructures": 12733, "ĠImp": 12734, "ÛĮ": 12735, "Ġ<>": 12736, "Ġplain": 12737, "Ġpeer": 12738, "gg": 12739, "oints": 12740, "Ġsomewhat": 12741, "Ġwet": 12742, "Ġemployment": 12743, "Ġtickets": 12744, "irms": 12745, "Ġtuple": 12746, "sis": 12747, "rig": 12748, "Ġconversion": 12749, "Ġconfigure": 12750, "egr": 12751, "ĠCa": 12752, "ouston": 12753, "Black": 12754, "Ġmagazine": 12755, "AW": 12756, "osing": 12757, "Ġbroke": 12758, "ĠCru": 12759,
[...]
